[PAD]
[UNK]
[CLS]
[SEP]
[MASK]
!
"
#
$
%
&
'
(
)
*
+
,
-
.
/
0
1
2
3
4
5
6
7
8
9
:
;
<
=
>
?
@
A
B
C
D
E
F
G
H
I
J
K
L
M
N
O
P
Q
R
S
T
U
V
W
X
Y
Z
[
]
^
_
`
a
b
c
d
e
f
g
h
i
j
k
l
m
n
o
p
q
r
s
t
u
v
w
x
y
z
{
|
}
~
¡
£
¥
§
«
®
°
±
²
³
´
µ
¶
·
¹
º
»
¼
½
¿
Á
Ä
Æ
Ç
É
Ó
Ö
×
Ø
Ú
Ü
ß
à
á
â
ã
ä
å
æ
ç
è
é
ê
ë
ì
í
î
ï
ð
ñ
ò
ó
ô
ö
÷
ø
ù
ú
û
ü
ý
þ
ā
ă
ą
ć
Č
č
Đ
đ
ē
ę
ě
ğ
ī
İ
ı
ł
ń
ŋ
Ō
ō
ŏ
œ
ś
Ş
ş
Š
š
ū
ŭ
ż
ž
ƒ
ơ
ư
ǎ
ǐ
ǒ
ǔ
ɐ
ɑ
ɔ
ɕ
ə
ɛ
ɡ
ɨ
ɪ
ɯ
ɹ
ɾ
ʁ
ʂ
ʃ
ʊ
ʌ
ʑ
ʒ
ʔ
ʰ
ʲ
ʻ
ˇ
ˈ
ˋ
ː
˚
̀
́
̃
̍
̚
̞
̯
͡
Α
Β
Γ
Δ
Ε
Θ
Ι
Κ
Λ
Μ
Ν
Ο
Π
Σ
Τ
Υ
Φ
Χ
Ψ
Ω
ά
έ
ή
ί
α
β
γ
δ
ε
ζ
η
θ
ι
κ
λ
μ
ν
ξ
ο
π
ρ
ς
σ
τ
υ
φ
χ
ω
ό
ύ
ώ
Ё
А
Б
В
Г
Д
Е
Ж
З
И
К
Л
М
Н
О
П
Р
С
Т
У
Ф
Х
Ц
Ч
Ш
Э
Ю
Я
а
б
в
г
д
е
ж
з
и
й
к
л
м
н
о
п
р
с
т
у
ф
х
ц
ч
ш
щ
ъ
ы
ь
э
ю
я
ё
і
ј
ѣ
қ
ң
ү
ӕ
ә
ө
ա
ե
ի
ն
ո
ս
ր
ָ
א
ב
ד
ה
ו
ח
י
ל
ם
מ
ן
נ
ע
ר
ש
ת
آ
أ
إ
ئ
ا
ب
ة
ت
ج
ح
خ
د
ر
ز
س
ش
ص
ط
ع
غ
ـ
ف
ق
ك
ل
م
ن
ه
و
ى
ي
َ
ُ
ِ
ّ
ْ
پ
ک
گ
ی
ं
क
ग
ज
त
न
प
म
य
र
ल
व
स
ह
ा
ि
ी
ु
े
्
া
்
ก
ค
ง
จ
ช
ด
ต
ท
น
บ
ป
พ
ม
ย
ร
ล
ว
ส
ห
อ
ะ
ั
า
ิ
ี
ื
ุ
฿
เ
ไ
็
่
้
์
๎
་
ა
ე
ი
ლ
ო
რ
ს
ᄀ
ᄂ
ᄃ
ᄅ
ᄆ
ᄇ
ᄉ
ᄋ
ᄌ
ᄎ
ᄒ
ᄠ
ᄫ
ᄭ
ᄯ
ᅀ
ᅌ
ᅡ
ᅣ
ᅥ
ᅧ
ᅩ
ᅮ
ᅳ
ᅵ
ᆞ
ᆡ
ᆨ
ᆫ
ᆯ
ᆷ
ᆺ
ᆼ
ᇰ
្
ᠠ
ᠢ
ᠣ
ᠨ
ᠩ
ᠪ
ᠭ
ᠮ
ᠯ
ᠰ
ᡝ
ᡠ
ᡤ
ᡥ
ᡩ
ᡳ
ᡵ
ạ
ả
ế
ễ
ệ
ộ
ἐ
‐
‒
–
—
―
‘
’
“
”
†
‡
•
․
‥
…
‧
′
″
‹
›
※
ⁿ
₂
₡
₩
€
℃
ℓ
™
⅓
⅔
Ⅰ
Ⅱ
Ⅲ
Ⅳ
Ⅴ
Ⅵ
Ⅶ
Ⅷ
Ⅸ
Ⅹ
←
↑
→
↓
↔
↕
↖
↗
↘
↙
↻
⇒
⇓
⇔
∀
−
∙
√
∞
∥
∴
∼
≈
≒
≠
≤
≥
≪
≫
⊙
⋅
⋯
⌀
①
②
③
④
⑤
⑥
⑦
⑧
⑨
⑩
⑪
⑫
⑮
⑲
⑶
⑸
Ⓐ
ⓐ
ⓑ
ⓒ
ⓕ
ⓗ
ⓚ
ⓝ
ⓟ
ⓢ
─
━
│
┃
┏
┓
└
┗
┛
├
┠
┣
┼
▀
▄
█
░
▒
▓
■
□
▣
▨
▩
▲
△
▶
▷
▸
▼
▽
◀
◁
◆
◇
◈
◉
○
◎
●
◐
◑
◦
◯
◾
★
☆
☎
☏
☜
☞
☠
☭
♀
♂
♠
♡
♣
♤
♥
♦
♧
♨
♪
♫
♬
♭
♯
⚭
✅
✓
✦
✨
✲
✴
❤
➡
⠄
⣿
⬅
⭐
、
。
〃
々
〇
〈
〉
《
》
「
」
『
』
【
】
〓
〔
〕
〜
ぁ
あ
ぃ
い
ぅ
う
ぇ
え
ぉ
お
か
が
き
ぎ
く
ぐ
け
げ
こ
ご
さ
ざ
し
じ
す
ず
せ
ぜ
そ
ぞ
た
だ
ち
ぢ
っ
つ
づ
て
で
と
ど
な
に
ぬ
ね
の
は
ば
ぱ
ひ
び
ぴ
ふ
ぶ
ぷ
へ
べ
ぺ
ほ
ぼ
ぽ
ま
み
む
め
も
ゃ
や
ゅ
ゆ
ょ
よ
ら
り
る
れ
ろ
わ
ゐ
を
ん
ァ
ア
ィ
イ
ゥ
ウ
ェ
エ
ォ
オ
カ
ガ
キ
ギ
ク
グ
ケ
ゲ
コ
ゴ
サ
ザ
シ
ジ
ス
ズ
セ
ゼ
ソ
ゾ
タ
ダ
チ
ヂ
ッ
ツ
ヅ
テ
デ
ト
ド
ナ
ニ
ヌ
ネ
ノ
ハ
バ
パ
ヒ
ビ
ピ
フ
ブ
プ
ヘ
ベ
ペ
ホ
ボ
ポ
マ
ミ
ム
メ
モ
ャ
ヤ
ュ
ユ
ョ
ヨ
ラ
リ
ル
レ
ロ
ワ
ヲ
ン
ヴ
ヶ
・
ー
ヽ
ㄛ
ㄥ
ㄧ
ㄨ
ㄩ
ㄱ
ㄲ
ㄳ
ㄴ
ㄵ
ㄶ
ㄷ
ㄸ
ㄹ
ㄺ
ㄻ
ㄼ
ㄽ
ㄾ
ㄿ
ㅀ
ㅁ
ㅂ
ㅃ
ㅄ
ㅅ
ㅆ
ㅇ
ㅈ
ㅉ
ㅊ
ㅋ
ㅌ
ㅍ
ㅎ
ㅏ
ㅐ
ㅑ
ㅒ
ㅓ
ㅔ
ㅕ
ㅖ
ㅗ
ㅘ
ㅙ
ㅚ
ㅛ
ㅜ
ㅝ
ㅞ
ㅟ
ㅠ
ㅡ
ㅢ
ㅣ
ㅤ
ㆍ
㈔
㈜
㎉
㎍
㎎
㎏
㎐
㎑
㎒
㎓
㎖
㎚
㎛
㎜
㎝
㎞
㎟
㎡
㎢
㎥
㎧
㎾
㎿
㏄
㏈
㏊
一
丁
七
万
丈
三
上
下
不
与
丑
专
且
世
丘
丙
业
东
丞
両
並
丨
个
中
串
丶
丸
丹
为
主
丽
丿
乃
久
么
义
之
乎
乐
乗
乘
乙
九
乞
也
习
书
买
乱
乳
乾
亀
亂
亅
了
予
争
事
二
于
云
互
五
井
亚
些
亜
亞
亠
亡
交
亥
亦
亨
享
京
亭
亮
人
什
仁
仇
今
介
从
仏
仔
仕
他
付
仙
代
令
以
们
仮
仰
仲
件
任
份
企
伊
伍
伏
伐
休
会
伝
传
伯
伴
伸
似
伽
但
位
低
住
佐
佑
体
何
余
佛
作
你
佳
使
來
例
侍
供
依
価
侯
侵
便
係
俊
俗
保
俠
信
修
俱
俺
倉
個
倍
們
倒
候
借
値
倫
倭
倶
假
偉
偏
做
停
健
側
偵
偶
偽
傅
傍
傑
傘
備
催
傲
傳
傷
傾
働
像
僕
僚
僞
僧
價
儀
億
儉
儒
儚
償
優
儿
允
元
兄
充
兆
先
光
克
免
兎
児
兒
党
兜
入
內
全
兩
兪
八
公
六
兮
兰
共
关
兴
兵
其
具
典
兼
冂
内
円
冊
再
冒
冖
冗
写
军
冠
冥
冨
冫
冬
冰
冲
冴
冶
冷
凄
准
凉
凌
凍
凛
凝
几
凡
処
凪
凰
凱
凵
凶
凸
凹
出
击
函
刀
刃
分
切
刈
刊
刑
列
刘
则
刚
初
判
別
利
别
到
制
券
刹
刺
刻
則
削
前
剛
剣
剥
副
割
創
劇
劉
劍
力
功
加
务
劣
动
助
努
劫
励
労
効
勅
勇
勉
勒
動
勘
務
勝
勞
募
勢
勤
勳
勸
勹
勿
匂
包
匕
化
北
匚
匠
匡
匸
匹
区
医
區
十
千
升
午
半
卍
华
卑
卒
卓
協
单
南
単
博
卜
卞
占
卡
卩
卫
卯
印
危
即
却
卵
卷
卽
卿
厂
厄
厚
原
厨
厳
厶
去
参
參
又
叉
及
友
双
反
収
发
叔
取
受
变
叡
叢
口
古
句
叩
只
叫
召
可
台
叱
史
右
叶
号
司
吃
各
合
吉
同
名
后
吏
吐
向
吗
君
吟
否
吧
含
听
吳
吴
吸
吹
吾
呀
呂
呉
告
呑
员
呜
呢
周
呪
味
呼
命
咆
和
咲
咸
哀
品
哈
哉
哎
員
哥
哦
哪
哭
哮
哲
哼
唄
唇
唐
唯
唱
商
啊
問
啓
啦
善
喆
喉
喚
喜
喝
喧
喪
喬
單
喰
営
嗚
嗣
嗯
嘆
嘉
嘘
嘛
嘩
嘻
嘿
噂
噛
器
嚴
囁
囗
囚
四
回
因
团
団
园
困
囲
図
固
国
圈
國
圍
園
圓
圖
團
土
圣
圧
在
圭
地
场
址
坂
均
坊
坐
坡
坤
坪
垂
型
垢
垣
埋
城
域
執
培
基
埼
堀
堂
堅
堕
堡
堤
堯
報
場
塊
塔
塗
塘
塚
塞
塩
填
塵
塾
境
墓
増
墜
增
墨
墳
壁
壇
壊
壓
壞
壤
士
壬
壮
壯
声
壱
売
壹
壺
壽
夂
处
备
変
夊
夏
夕
外
多
夜
够
夢
大
天
太
夫
央
失
头
夷
奇
奈
奉
奎
奏
契
奔
奥
奧
奪
奮
女
奴
她
好
如
妃
妄
妖
妙
妬
妹
妻
姉
始
姐
姑
姓
委
姜
姦
姫
姬
姿
威
娘
娜
娥
婁
婆
婚
婦
媒
媛
媤
嫁
嫉
嫌
嬉
嬢
嬪
子
孔
字
存
孝
孟
季
孤
学
孩
孫
學
宀
宁
它
宅
宇
守
安
宋
完
宏
宗
官
宙
定
宛
宜
宝
实
実
客
宣
室
宮
宰
害
宴
宵
家
宸
容
宿
寂
寄
寅
密
富
寒
寛
寝
察
寡
實
寧
審
寫
寬
寶
寸
对
寺
対
寿
封
専
射
将
將
專
尉
尊
尋
對
導
小
少
尔
尖
尙
尚
尢
就
尸
尹
尺
尻
尼
尽
尾
局
居
屈
届
屋
屍
屑
展
属
屠
層
履
屬
屯
山
岐
岛
岡
岩
岬
岳
岸
峙
峡
峨
峯
峰
峴
島
峻
崇
崎
崔
崖
崩
嵐
嶋
嶺
嶽
巖
巛
川
州
巡
巣
工
左
巧
巨
巫
差
己
已
巳
巴
巻
巾
市
布
帆
师
希
帖
帝
帥
带
師
席
帮
帯
帰
帳
帶
常
帽
幅
幌
幕
幡
幣
干
平
年
并
幸
幹
幺
幻
幼
幽
幾
广
庁
広
庄
床
序
应
底
店
庚
府
度
座
庫
庭
庵
庶
康
庸
廃
廉
廊
廟
廢
廣
廳
廴
延
廷
建
廻
廾
廿
开
弁
弄
弋
式
弐
弓
弔
引
弗
弘
弟
张
弥
弦
弩
弱
張
強
弹
强
弼
弾
彈
彌
彐
当
彗
彡
形
彦
彩
彫
彬
彭
彰
影
彳
彷
役
彼
往
征
待
很
律
後
徐
徒
従
得
從
御
徨
復
微
徳
徵
德
徹
徽
心
必
忌
忍
志
忘
忙
応
忠
快
念
忽
怎
怒
怕
怖
怜
思
怠
怡
急
性
怨
怪
怯
总
恋
恐
恒
恥
恨
恩
恭
息
恵
悔
悟
悠
患
悦
您
悩
悪
悲
悼
情
惑
惜
惟
惠
惡
惨
想
惹
愁
愉
愍
意
愚
愛
感
愼
愿
慈
態
慎
慕
慢
慣
慧
慮
慰
慶
憂
憎
憐
憑
憤
憧
憩
憲
憶
應
懐
懷
懸
懿
戀
戈
戊
戌
戎
成
我
戒
或
战
戦
戯
戰
戴
戶
戸
戻
房
所
扇
扉
手
才
打
払
托
扮
扱
扶
找
承
技
抄
把
抑
投
抗
折
抜
択
护
报
披
抱
抵
抹
押
担
拉
拍
拒
拓
拔
拘
拙
招
拜
拝
拠
拡
括
拳
拶
拾
持
指
按
挑
挙
挥
挨
振
捉
捕
捜
捧
捨
捷
掃
授
掌
排
掘
掛
採
探
接
控
推
掲
掴
掻
揃
描
提
揚
換
握
揮
援
揺
損
携
摂
摘
摠
摩
撃
撒
撫
播
撮
撰
擊
操
擦
擧
擬
攝
支
攴
收
改
攻
放
政
故
效
敌
敎
敏
救
敗
教
敢
散
敦
敬
数
整
敵
敷
數
文
斉
斎
斐
斑
斗
料
斜
斤
斧
斬
断
斯
新
斷
方
於
施
旅
旋
族
旗
无
既
日
旦
旧
旨
早
旬
旭
时
旺
昆
昇
昊
昌
明
昏
易
昔
星
映
春
昧
昨
昭
是
昼
時
晃
晉
晋
晚
晨
晩
普
景
晴
晶
智
暁
暇
暑
暖
暗
暢
暦
暮
暴
曆
曇
曉
曖
曜
曰
曲
更
書
曹
曺
曼
曽
曾
替
最
會
月
有
朋
服
朔
朗
望
朝
期
朧
木
未
末
本
札
术
朱
朴
机
朽
杉
李
杏
材
村
杖
杜
束
条
来
杨
杯
杰
東
松
板
枕
林
枚
果
枝
枪
枯
架
柄
柊
柏
某
染
柔
柚
柱
柳
柴
査
柿
栃
栄
标
栖
栗
栞
校
株
样
核
根
格
桂
桃
案
桐
桑
桓
桜
桥
梁
梅
梓
條
梦
梧
梨
械
梵
梶
棄
棋
棍
棒
棘
棚
棟
森
棲
棺
植
椎
検
椿
楊
楓
楚
楠
業
極
楼
楽
榊
榎
榛
榮
構
槌
槍
様
槻
樂
樋
樓
標
樞
模
樣
権
横
樹
橋
橘
橙
機
橫
檀
檎
檜
檢
檬
檻
櫓
櫻
欅
權
欠
次
欢
欣
欧
欲
欺
欽
歌
歐
歓
歡
止
正
此
步
武
歩
歪
歯
歲
歳
歴
歷
歸
歹
死
殊
残
殘
殲
殳
段
殷
殺
殻
殿
毅
毋
母
毎
每
毒
比
毘
毛
氏
民
气
気
氣
水
氷
永
汁
求
汉
汐
汗
汚
汝
江
池
汪
汰
決
汽
沃
沈
沌
沒
沖
沙
没
沢
沫
河
沸
油
治
沼
沿
況
泉
泊
法
泡
波
泣
泥
注
泰
泳
洋
洗
洙
洛
洞
津
洪
洲
活
派
流
浄
浅
浜
浦
浩
浪
浮
浴
海
浸
消
涙
涯
液
涼
淀
淑
淚
淡
淨
淫
淮
深
淳
淵
混
淸
添
清
済
渉
渋
渕
渚
減
渠
渡
渦
温
測
港
游
渾
湊
湖
湘
湧
湯
湾
満
源
準
溜
溝
溢
溪
溫
溶
溺
滅
滋
滑
滝
满
滲
滴
滿
漁
漂
漆
漏
演
漠
漢
漫
潔
潘
潛
潜
潟
潤
潭
潮
潰
澄
澤
激
濁
濃
濟
濡
濤
濱
瀧
瀬
灘
灣
火
灯
灰
灵
灼
災
炎
炭
炮
炯
炳
炸
点
為
烈
烏
热
焉
焔
無
焦
焰
然
焼
煉
煌
煙
煥
照
煩
煮
熊
熙
熟
熱
燃
燈
燒
燕
營
燦
燮
爆
爐
爛
爪
爭
爱
爲
爵
父
爺
爻
爽
爾
爿
片
版
牌
牙
牛
牝
牟
牡
牢
牧
物
牲
特
犬
犯
状
狀
狂
狐
狗
狙
狩
独
狭
狼
猛
猪
猫
猶
猿
獄
獅
獣
獨
獲
獸
獻
玄
率
玉
王
玖
玩
现
玲
珍
珠
班
現
球
理
琉
琳
琴
瑛
瑜
瑞
瑠
璃
璧
環
瓜
瓦
瓶
甁
甘
甚
甜
生
産
用
甫
田
由
甲
申
电
男
町
画
界
畏
畑
留
畜
畠
略
番
畫
異
畵
當
畿
疋
疏
疑
疒
疲
疾
病
症
痕
痛
痴
療
癒
癖
癶
癸
発
登
發
白
百
的
皆
皇
皐
皓
皮
皿
盆
益
盗
盛
盜
盟
盡
監
盤
盧
目
盲
直
相
盾
省
眉
看
県
眞
真
眠
眩
眷
眺
眼
着
睡
督
睦
睿
瞬
瞳
矛
矢
矣
知
短
石
砂
研
砕
砲
破
硏
硝
硬
碎
碑
碧
碩
確
磁
磐
磨
磯
示
礼
社
祀
祇
祈
祐
祖
祚
祝
神
祠
祥
票
祭
祿
禁
禅
禍
禎
福
禧
禪
禮
禸
禹
禾
禿
秀
私
秉
秋
种
科
秒
秘
秦
秩
称
移
稀
稅
程
稚
種
稱
稲
稷
稼
稽
稿
穀
穂
穆
積
穏
穢
穴
究
空
穿
突
窓
窟
窪
窮
立
站
竜
竟
章
童
端
競
竹
笑
笛
笠
符
第
笹
筆
等
筋
筑
筒
答
策
箕
算
管
箭
箱
節
範
篇
築
篠
篤
簡
簿
籍
籠
米
粉
粋
粒
粘
粟
精
糖
糧
糸
系
紀
約
紅
紋
納
純
紗
紙
級
紛
素
紡
索
紫
累
細
紳
紹
紺
終
組
絆
経
結
絡
絢
給
統
絲
絵
絶
絹
經
継
続
綠
維
綱
網
綴
綺
綾
綿
緊
緋
総
緑
緒
緖
線
締
緣
編
練
縁
縄
縛
縣
縫
縮
總
績
繁
繋
織
繚
繰
繼
續
纏
红
约
级
线
练
组
终
经
结
给
绝
维
缶
网
罗
罠
罪
置
罰
署
羅
羊
美
群
義
羽
翁
習
翔
翠
翰
翻
翼
耀
老
考
者
而
耐
耒
耕
耳
耶
联
聖
聚
聞
聡
聯
聲
聴
職
聽
聿
肅
肇
肉
肌
肖
肝
股
肥
肩
育
胃
胆
背
胎
胜
胞
胡
胤
胸
能
脅
脇
脈
脚
脫
脱
脳
腐
腕
腦
腰
腸
腹
膳
臆
臓
臣
臥
臨
自
臭
至
致
臺
臼
與
興
舊
舌
舍
舎
舒
舛
舜
舞
舟
航
般
舰
船
艇
艦
艮
良
色
艶
艸
艾
节
芙
芝
芦
花
芳
芸
芹
芽
苏
苑
苗
若
苦
英
茂
范
茅
茉
茜
茨
茶
草
荊
荒
荘
荣
荷
荻
荼
莉
莊
莫
莱
菅
菊
菌
菓
菜
菩
華
菱
萊
萌
萩
萬
落
葉
著
葛
董
葬
葵
蒙
蒲
蒸
蒼
蓄
蓋
蓝
蓬
蓮
蔚
蔡
蔣
蔵
蕩
蕭
蕾
薄
薇
薔
薙
薛
薩
薫
薬
藍
藏
藝
藤
藥
藩
藻
蘇
蘭
虍
虎
虐
處
虚
虛
虜
虞
號
虫
虹
虽
蛇
蛋
蛍
蛛
蛮
蜀
蜂
蜃
蜘
蜜
蝕
蝶
融
螺
蟲
蟹
蠻
血
衆
行
衍
術
街
衛
衝
衡
衣
表
袁
袋
袖
被
裁
裂
装
裏
裕
補
裝
裡
裵
裸
製
複
褒
襄
襲
襾
西
要
覆
覇
見
規
視
覗
覚
覧
親
観
覺
覽
觀
见
视
觉
角
解
触
言
計
討
訓
託
記
訣
訪
設
許
訳
訴
註
証
詔
評
詞
詠
試
詩
詰
話
詳
誇
誉
誌
認
誓
誕
誘
語
誠
誤
說
説
読
誰
課
調
談
請
諏
論
諦
諫
諭
諸
諺
謀
謂
謎
謙
講
謝
謨
謳
謹
證
識
譚
譜
警
譯
議
譲
護
讀
讃
變
讐
讓
计
认
让
训
记
许
论
设
试
诗
话
该
语
说
请
谢
谷
豆
豊
豐
豕
豚
象
豪
豫
豸
豹
貌
貝
貞
負
財
貢
貧
貨
貪
貫
責
貰
貳
貴
買
貸
費
賀
資
賈
賊
賓
賛
賜
賞
賢
賣
賤
賦
質
賭
贈
贊
赤
赦
赫
走
起
超
越
趙
趣
足
跋
跑
距
跡
路
跳
踊
踏
蹟
蹴
躍
身
車
軌
軍
軒
軟
転
軸
軽
載
輔
輕
輝
輩
輪
輸
輿
轉
轟
车
轻
辛
辞
辣
辭
辰
辱
農
辵
边
辺
辻
込
达
辿
迅
过
迎
运
近
返
还
这
进
远
连
迦
迪
迫
述
迷
追
退
送
逃
逆
选
透
逐
途
這
通
逝
速
造
逢
連
週
進
逸
遁
遂
遅
遇
遊
運
遍
過
道
達
違
遙
遠
遣
遥
適
遭
遮
遷
選
遺
遼
避
還
邊
邑
那
邦
邪
邱
邸
郁
郎
郞
郡
部
郭
郵
郷
都
鄉
鄒
鄕
鄧
鄭
酉
配
酒
酔
酬
酷
酸
醉
醒
醜
醫
釆
采
釈
釋
里
重
野
量
金
釜
針
釣
鈍
鈴
鉄
鉉
鉢
銀
銃
銅
銘
銭
鋭
鋼
錄
錆
錢
錦
錨
錫
錬
錯
録
鍊
鍋
鍛
鍵
鍾
鎌
鎔
鎖
鎧
鎬
鎭
鎮
鏡
鐘
鐵
鑑
铁
错
镇
長
长
門
閃
閉
開
閑
間
閔
関
閣
閻
闇
闕
闘
關
门
闪
问
间
阜
队
阪
阮
防
阳
阻
阿
陀
附
际
陈
降
限
陛
院
陣
除
陪
陰
陳
陵
陶
陸
険
陽
隅
隆
隊
階
随
隔
隙
際
障
隠
隣
隨
險
隱
隶
隷
隹
隼
难
雀
雄
雅
集
雍
雑
雙
雛
雜
離
難
雨
雪
雫
雲
零
雷
電
需
震
霊
霜
霞
霧
露
霸
靈
靑
青
靖
静
靜
非
面
革
靴
鞍
鞠
鞭
韋
韓
韭
音
韻
響
頁
頂
頃
項
順
須
預
頑
頓
領
頬
頭
頼
題
額
顔
顕
願
類
顧
顯
風
风
飛
飞
食
飮
飯
飲
飼
飽
飾
養
餐
餓
餘
館
首
香
馨
馬
馮
馳
駄
駅
駆
駐
駒
駕
駿
騎
騒
験
騙
驅
驚
驛
马
骨
骸
體
高
髙
髟
髪
髮
鬥
鬪
鬯
鬱
鬲
鬼
魁
魂
魄
魅
魏
魔
魚
魯
鮫
鮮
鯨
鱗
鱼
鳥
鳩
鳳
鳴
鴨
鴻
鶴
鷄
鷲
鷹
鷺
鹵
鹽
鹿
麒
麗
麟
麥
麦
麻
黃
黄
黍
黎
黑
黒
默
黙
點
黨
黹
黽
鼎
鼓
鼠
鼻
齊
齋
齒
齡
龍
龙
龜
龠
가
각
간
갇
갈
갉
감
갑
값
갓
갔
강
갖
갗
같
갚
갛
개
객
갠
갤
갬
갭
갯
갰
갱
갸
갹
걀
걍
걔
걘
거
걱
건
걷
걸
검
겁
것
겄
겅
겉
겊
겋
게
겍
겐
겔
겜
겟
겠
겡
겨
격
겪
견
결
겸
겹
겻
겼
경
곁
계
곗
고
곡
곤
곧
골
곪
곯
곰
곱
곳
공
곶
과
곽
관
괄
괌
광
괘
괜
괭
괴
괵
괸
굇
굉
교
굣
구
국
군
굳
굴
굵
굶
굼
굽
굿
궁
궂
궃
궈
권
궐
궜
궤
궨
귀
귄
귈
귐
귓
규
균
귤
귯
그
극
근
글
긁
금
급
긋
긍
긔
기
긱
긴
길
김
깁
깃
깄
깅
깊
까
깍
깎
깐
깔
깜
깝
깟
깠
깡
깥
깨
깬
깰
깻
깼
깽
꺄
꺅
꺠
꺼
꺽
꺾
껀
껄
껌
껍
껏
껐
껑
께
껫
껴
껸
꼈
꼐
꼬
꼭
꼰
꼴
꼼
꼽
꼿
꽁
꽂
꽃
꽈
꽉
꽐
꽝
꽤
꽥
꽹
꾀
꾐
꾸
꾹
꾼
꿀
꿇
꿈
꿉
꿋
꿍
꿎
꿏
꿔
꿨
꿩
꿰
뀌
뀐
뀔
뀜
뀝
뀨
끄
끈
끊
끌
끓
끔
끗
끙
끝
끼
끽
낀
낄
낌
낍
낑
나
낙
낚
난
낟
날
낡
남
납
낫
났
낭
낮
낯
낱
낳
내
낵
낸
낼
냄
냅
냇
냈
냉
냐
냑
냔
냘
냠
냥
너
넉
넋
넌
널
넒
넓
넘
넙
넛
넜
넝
넣
네
넥
넨
넬
넴
넵
넷
넸
넹
녀
녁
년
녈
념
녔
녕
녘
녜
녠
노
녹
논
놀
놈
놉
놋
농
높
놓
놔
놨
뇌
뇨
뇰
뇽
누
눅
눈
눌
눔
눕
눗
눙
눠
눴
뉘
뉜
뉠
뉴
뉵
뉼
늄
늅
늉
느
늑
는
늘
늙
늠
능
늦
늪
늬
니
닉
닌
닐
님
닙
닛
닝
닢
다
닥
닦
단
닫
달
닭
닮
닯
닳
담
답
닷
당
닻
닼
닿
대
댁
댄
댈
댐
댑
댓
댔
댕
댜
더
덕
던
덜
덟
덤
덥
덧
덩
덫
덮
데
덱
덴
델
뎀
뎁
뎃
뎅
뎌
뎐
뎠
뎨
뎬
도
독
돈
돋
돌
돔
돕
돗
동
돚
돛
돝
돠
돡
돤
돼
됐
되
된
될
됨
됩
됬
됭
됴
두
둑
둔
둘
둠
둡
둣
둥
둬
뒀
뒈
뒤
뒬
뒷
뒹
듀
듄
듈
듐
드
득
든
듣
들
듦
듬
듭
듯
등
듸
디
딕
딘
딛
딜
딤
딥
딧
딨
딩
딪
딫
따
딱
딴
딸
땀
땁
땃
땄
땅
땋
때
땐
땔
땜
땠
땡
떄
떠
떡
떤
떨
떫
떳
떴
떵
떻
떼
떽
뗀
뗄
뗏
뗐
또
똑
똘
똠
똥
똬
뙤
뚜
뚝
뚠
뚤
뚫
뚱
뛰
뛴
뛸
뜀
뜨
뜩
뜬
뜯
뜰
뜷
뜸
뜻
띄
띈
띌
띔
띠
띤
띨
띵
라
락
란
랄
람
랍
랏
랐
랑
랖
랗
래
랙
랜
랠
램
랩
랫
랬
랭
랴
략
랸
량
러
럭
런
럴
럼
럽
럿
렀
렁
렇
레
렉
렌
렐
렘
렙
렛
렜
렝
려
력
련
렬
렴
렵
렷
렸
령
례
롄
롈
로
록
론
롤
롬
롭
롯
롱
롸
뢰
뢴
룀
료
룔
룡
루
룩
룬
룰
룸
룹
룻
룽
뤄
뤘
뤠
뤼
뤽
륀
륄
류
륙
륜
률
륨
륭
르
륵
른
를
름
릅
릇
릉
릎
리
릭
린
릴
림
립
릿
링
맆
마
막
만
많
맏
말
맑
맘
맙
맛
망
맞
맟
맡
맢
맣
매
맥
맨
맬
맴
맵
맷
맸
맹
맺
먀
먄
머
먹
먼
멀
멈
멋
멍
멎
멓
메
멕
멘
멜
멤
멥
멧
멩
멬
며
멱
면
멸
몄
명
몆
몇
몐
모
목
몫
몬
몰
몸
몹
못
몽
뫄
뫼
묀
묄
묏
묘
묜
묠
묭
무
묵
묶
문
묻
물
묽
뭄
뭅
뭇
뭉
뭍
뭐
뭔
뭘
뭡
뭣
뭥
뮈
뮌
뮐
뮤
뮨
뮬
뮴
므
믄
믈
믐
믓
믜
미
믹
민
믿
밀
밈
밉
밋
밌
밍
밎
및
밑
바
박
밖
반
받
발
밝
밞
밟
밤
밥
밧
방
밭
배
백
밴
밸
뱀
뱁
뱃
뱅
뱉
뱌
버
벅
번
벌
범
법
벗
벙
벚
벛
벞
베
벡
벤
벧
벨
벰
벱
벳
벵
벼
벽
변
별
볍
볏
볐
병
볕
볘
볜
보
복
볶
본
볼
봄
봅
봇
봉
봐
봤
봬
뵈
뵌
뵐
뵘
뵙
뵤
부
북
분
붇
불
붉
붐
붑
붓
붕
붙
붸
뷁
뷔
뷘
뷜
뷰
뷴
뷸
븀
븅
브
븐
블
븨
비
빅
빈
빌
빔
빕
빗
빙
빚
빛
빠
빡
빤
빨
빰
빳
빴
빵
빻
빼
빽
뺀
뺄
뺌
뺏
뺐
뺑
뺨
뺴
뻐
뻑
뻔
뻗
뻘
뻣
뻤
뻥
뻬
뼈
뼉
뼘
뼛
뽀
뽁
뽈
뽐
뽑
뽕
뾰
뾱
뿅
뿌
뿍
뿐
뿔
뿜
뿡
쀼
쁘
쁜
쁠
쁨
쁩
삐
삑
삔
삘
삥
사
삭
삯
산
살
삵
삶
삼
삽
삿
샀
상
샅
새
색
샌
샐
샘
샙
샛
샜
생
샤
샥
샨
샬
샴
샵
샷
샹
샾
섀
섐
섕
서
석
섞
선
섣
설
섬
섭
섯
섰
성
섶
세
섹
센
셀
셈
셉
셋
셌
셍
셔
션
셜
셤
셧
셨
셩
셰
셴
셸
솀
솁
솅
소
속
솎
손
솔
솜
솝
솟
송
솥
솨
솩
솬
솽
쇄
쇠
쇤
쇳
쇼
쇽
숀
숄
숌
숍
숏
숑
수
숙
순
숟
술
숨
숫
숭
숯
숱
숲
숴
쉈
쉐
쉑
쉔
쉘
쉬
쉭
쉰
쉴
쉼
쉽
쉿
슈
슉
슌
슐
슘
슛
슝
스
슥
슨
슬
슭
슴
습
슷
승
슼
슾
시
식
신
싣
실
싫
심
십
싯
싱
싶
싸
싹
싼
쌀
쌈
쌉
쌌
쌍
쌓
쌔
쌕
쌘
쌤
쌩
쌰
썅
써
썩
썬
썰
썸
썹
썻
썼
썽
쎄
쎈
쎌
쏘
쏙
쏜
쏟
쏠
쏨
쏩
쏭
쏴
쐈
쐐
쐬
쑈
쑤
쑥
쑨
쑹
쒀
쒸
쓰
쓱
쓴
쓸
씀
씁
씌
씐
씨
씩
씬
씰
씸
씹
씻
씽
아
악
안
앉
않
알
앍
앎
앓
암
압
앗
았
앙
앜
앞
애
액
앤
앨
앰
앱
앳
앴
앵
야
약
얀
얄
얇
얌
얍
얏
양
얕
얗
얘
얜
어
억
언
얹
얻
얼
얽
엄
업
없
엇
었
엉
엊
엌
엎
에
엑
엔
엘
엠
엡
엣
엥
여
역
엮
연
열
엷
염
엽
엾
엿
였
영
옅
옆
옇
예
옉
옌
옐
옙
옛
오
옥
온
올
옭
옮
옳
옴
옵
옷
옹
옻
옼
와
왁
완
왈
왐
왑
왓
왔
왕
왜
왠
왱
외
왼
요
욕
욘
욜
욤
욥
욧
용
우
욱
운
울
움
웁
웃
웅
워
웍
원
월
웜
웠
웡
웨
웩
웬
웰
웸
웹
웻
웽
위
윅
윈
윌
윔
윕
윗
윙
유
육
윤
율
윰
윳
융
윷
으
윽
윾
은
을
읆
읊
음
읍
읏
응
의
읜
읭
이
익
인
일
읽
잃
임
입
잇
있
잉
잊
잌
잎
자
작
잔
잖
잘
잠
잡
잣
잤
장
잦
재
잭
잰
잴
잼
잽
잿
쟀
쟁
쟈
쟉
쟌
쟝
쟤
저
적
전
절
젊
젋
점
접
젓
젔
정
젖
제
젝
젠
젤
젬
젭
젯
젱
져
젼
졋
졌
졍
졔
조
족
존
졸
좀
좁
좃
종
좆
좇
좋
좌
좍
좔
좡
죄
죌
죗
죠
죤
주
죽
준
줄
줌
줍
줏
중
줘
줬
줴
쥐
쥔
쥘
쥬
쥰
쥴
즈
즉
즌
즐
즘
즙
즛
증
지
직
진
질
짊
짐
집
짓
징
짖
짙
짚
짜
짝
짠
짢
짤
짦
짧
짬
짭
짰
짱
째
짹
쨋
쨌
쨍
쨔
쨩
쨰
쩌
쩍
쩐
쩔
쩜
쩝
쩡
쩨
쪄
쪘
쪼
쪽
쫀
쫄
쫌
쫑
쫒
쫓
쫙
쬐
쭈
쭉
쭐
쭘
쭙
쭝
쭤
쮸
쯔
쯤
쯧
찌
찍
찐
찔
찜
찝
찟
찡
찢
찧
차
착
찬
찮
찰
참
찹
찻
찼
창
찾
채
책
챈
챌
챔
챕
챗
챘
챙
챠
챤
챰
챱
챳
챵
처
척
천
철
첨
첩
첫
첬
청
체
첵
첸
첼
쳄
쳅
쳇
쳉
쳐
쳔
쳤
쳬
초
촉
촌
촐
촘
촙
촛
총
촤
촥
촨
촬
최
쵸
춈
춉
춋
추
축
춘
출
춤
춥
춧
충
춰
췄
췌
취
췬
츄
츈
츔
츙
츠
측
츤
츨
츰
츳
층
치
칙
친
칠
칡
침
칩
칫
칭
칰
카
칵
칸
칼
캄
캅
캇
캉
캐
캑
캔
캘
캠
캡
캣
캤
캥
캬
캰
컁
커
컥
컨
컫
컬
컴
컵
컷
컸
컹
케
켁
켄
켈
켐
켑
켓
켕
켜
켠
켤
켰
코
콕
콘
콜
콤
콥
콧
콩
콰
콱
콴
콸
쾅
쾌
쾡
쾨
쾰
쿄
쿈
쿠
쿡
쿤
쿨
쿰
쿱
쿳
쿵
쿼
퀀
퀄
퀑
퀘
퀜
퀠
퀴
퀵
퀸
퀼
큄
큅
큐
큔
큘
큠
큥
크
큭
큰
클
큼
큽
큿
킁
키
킥
킨
킬
킴
킵
킷
킹
킼
타
탁
탄
탈
탉
탐
탑
탓
탔
탕
태
택
탠
탤
탬
탭
탯
탰
탱
탸
터
턱
턴
털
텀
텁
텃
텄
텅
테
텍
텐
텔
템
텝
텟
텡
텨
텼
톄
톈
토
톡
톤
톨
톰
톱
톳
통
퇘
퇴
툇
투
툭
툰
툴
툼
툽
툿
퉁
퉈
퉜
퉤
튀
튄
튈
튐
튕
튜
튠
튤
튬
트
특
튼
튿
틀
틈
틋
틔
티
틱
틴
틸
팀
팁
팃
팅
파
팍
팎
판
팔
팜
팝
팟
팠
팡
팥
패
팩
팬
팰
팸
팹
팻
팼
팽
퍄
퍼
퍽
펀
펄
펌
펍
펐
펑
페
펙
펜
펠
펨
펩
펫
펭
펴
편
펼
폄
폈
평
폐
포
폭
폰
폴
폼
폿
퐁
퐈
퐝
푀
푈
표
푯
푱
푸
푹
푼
풀
품
풉
풋
풍
퓌
퓨
퓰
퓸
프
픈
플
픔
픕
픠
피
픽
핀
필
핌
핍
핏
핑
하
학
한
할
핥
함
합
핫
항
핳
해
핵
핸
핼
햄
햅
햇
했
행
햏
햐
햘
햣
향
헀
허
헉
헌
헐
험
헙
헛
헝
헣
헤
헥
헨
헬
헴
헵
헷
헹
혀
혁
현
혈
혐
협
혓
혔
형
혜
호
혹
혼
홀
홈
홉
홋
홍
홑
화
확
환
활
홧
황
홰
홱
횃
회
획
횟
횡
효
횬
횽
후
훅
훈
훌
훍
훑
훔
훕
훗
훙
훠
훤
훨
훵
훼
휀
휑
휘
휙
휜
휠
휨
휩
휭
휴
휼
흄
흉
흐
흑
흔
흘
흙
흠
흡
흣
흥
흩
희
흭
흰
히
힉
힌
힐
힘
힙
힛
힝
金
羅
勞
老
綠
雷
樂
不
拾
兩
女
年
蓮
連
靈
禮
龍
劉
柳
六
李
林
立
茶
﨑
︎
️
！
＂
＃
＄
％
＆
（
）
＊
＋
，
－
．
／
０
１
２
３
４
５
６
７
８
９
：
；
＜
＝
＞
？
＠
Ａ
Ｂ
Ｃ
Ｄ
Ｅ
Ｆ
Ｇ
Ｈ
Ｉ
Ｊ
Ｋ
Ｌ
Ｍ
Ｎ
Ｏ
Ｐ
Ｒ
Ｓ
Ｔ
Ｕ
Ｖ
Ｗ
Ｘ
Ｙ
［
＼
］
＾
＿
｀
ａ
ｅ
ｇ
ｈ
ｉ
ｍ
ｏ
ｒ
ｔ
ｕ
ｗ
｜
～
｡
｢
｣
､
･
ｧ
ｨ
ｩ
ｭ
ｮ
ｯ
ｰ
ｱ
ｲ
ｳ
ｴ
ｵ
ｶ
ｷ
ｸ
ｹ
ｺ
ｻ
ｼ
ｽ
ｾ
ﾀ
ﾁ
ﾂ
ﾃ
ﾄ
ﾅ
ﾈ
ﾉ
ﾊ
ﾋ
ﾌ
ﾏ
ﾗ
ﾘ
ﾙ
ﾚ
ﾛ
ﾝ
ﾞ
ﾟ
￣
￥
￦
🌏
🏠
💕
😇
🚄
🚌
##크
##래
##딧
##영
##국
##상
##임
##위
##원
##회
##의
##장
##신
##기
##노
##에
##가
##검
##이
##니
##け
##よ
##う
##ぜ
##대
##표
##팀
##X
##u
##l
##k
##a
##루
##엣
##였
##다
##정
##도
##는
##트
##리
##키
##2
##일
##립
##부
##여
##박
##물
##관
##은
##양
##군
##더
##불
##어
##민
##주
##당
##호
##프
##드
##레
##날
##린
##1
##6
##사
##격
##통
##제
##수
##서
##만
##8
##0
##㎡
##년
##경
##터
##계
##화
##쪽
##악
##진
##형
##을
##타
##하
##락
##업
##과
##템
##나
##를
##령
##지
##록
##둘
##러
##보
##한
##되
##었
##데
##엔
##알
##렉
##스
##들
##세
##시
##듯
##전
##앗
##길
##것
##차
##고
##라
##b
##ī
##n
##i
##명
##웅
##게
##요
##킨
##토
##입
##3
##억
##치
##용
##증
##4
##9
##자
##포
##버
##션
##품
##함
##속
##된
##받
##목
##적
##으
##로
##갔
##던
##짝
##쿵
##미
##렛
##d
##산
##육
##성
##본
##획
##겠
##아
##셀
##청
##그
##あ
##た
##し
##ン
##ち
##광
##ㆍ
##랑
##쿠
##유
##림
##S
##x
##개
##인
##재
##발
##견
##봉
##역
##파
##집
##까
##마
##5
##츠
##란
##념
##않
##잠
##병
##심
##식
##약
##교
##혜
##녀
##베
##르
##남
##구
##새
##렐
##와
##카
##번
##턴
##술
##문
##웨
##덴
##후
##학
##뿌
##삿
##중
##생
##A
##탑
##외
##선
##순
##환
##우
##옵
##창
##테
##동
##탄
##7
##간
##L
##I
##M
##t
##h
##태
##균
##징
##급
##브
##R
##객
##추
##천
##O
##B
##E
##조
##오
##십
##북
##예
##챔
##쇼
##감
##독
##m
##저
##건
##석
##배
##애
##연
##냐
##e
##잖
##냥
##워
##해
##권
##퓨
##내
##거
##빕
##규
##강
##변
##합
##쟁
##때
##든
##킥
##월
##ら
##모
##T
##C
##티
##센
##케
##팅
##메
##활
##잡
##있
##텍
##야
##초
##안
##찰
##법
##끼
##벤
##바
##람
##헤
##빌
##액
##→
##같
##능
##딱
##코
##블
##근
##방
##론
##준
##져
##W
##r
##소
##출
##v
##름
##편
##단
##난
##운
##송
##했
##투
##음
##피
##커
##J
##맨
##작
##P
##g
##공
##께
##누
##즈
##뎠
##팬
##페
##ネ
##キ
##グ
##울
##류
##각
##칸
##슨
##즌
##둥
##실
##험
##택
##클
##랜
##두
##□
##면
##룹
##フ
##ェ
##좋
##백
##처
##완
##결
##ㄱ
##o
##c
##s
##츄
##려
##p
##글
##압
##링
##몬
##설
##등
##튜
##며
##w
##량
##퍼
##K
##D
##엘
##플
##네
##귀
##N
##밖
##셜
##최
##써
##℃
##홍
##패
##황
##뮤
##엄
##분
##놀
##비
##종
##반
##점
##y
##혼
##희
##릉
##무
##혀
##죠
##혁
##뿐
##별
##행
##눈
##언
##롭
##핑
##머
##틀
##철
##ē
##엠
##랫
##폼
##디
##벨
##골
##랐
##켓
##앙
##껍
##질
##×
##콰
##춤
##윤
##낼
##땐
##률
##잔
##금
##쳐
##갈
##켜
##れ
##ま
##즛
##슬
##롯
##찬
##곽
##룬
##줘
##흘
##례
##у
##т
##ь
##항
##훈
##련
##득
##튬
##복
##벌
##망
##칠
##삼
##틱
##할
##력
##너
##럼
##핵
##♂
##F
##쇄
##막
##H
##습
##캐
##촌
##놓
##롤
##른
##ⓒ
##겨
##잭
##탱
##z
##G
##윙
##킬
##못
##f
##힌
##쓰
##럭
##섯
##넥
##돼
##슈
##닛
##챈
##말
##열
##체
##ч
##е
##й
##к
##а
##협
##살
##곡
##높
##젬
##㎎
##밀
##픈
##굿
##승
##허
##긋
##판
##절
##덕
##툴
##펌
##잊
##런
##족
##히
##닮
##았
##잇
##욕
##렴
##ラ
##シ
##マ
##ド
##イ
##ブ
##느
##손
##↑
##극
##폭
##김
##풍
##담
##붕
##탁
##효
##평
##럽
##と
##の
##쳤
##í
##↓
##뻑
##ル
##ャ
##ー
##で
##す
##특
##쯤
##돌
##답
##멜
##캠
##풀
##층
##홀
##탈
##렌
##융
##맹
##る
##현
##채
##맞
##섞
##씨
##혹
##U
##촙
##큐
##착
##응
##웬
##꼬
##댔
##긴
##닫
##밴
##멧
##썰
##눠
##쏘
##á
##혔
##찍
##올
##됨
##폴
##릭
##앵
##샤
##닝
##삽
##뎅
##큰
##칭
##펀
##직
##닷
##온
##걸
##텀
##콤
##딥
##♪
##껏
##겜
##V
##꾼
##겔
##봇
##멸
##먼
##범
##콥
##님
##침
##총
##친
##ん
##て
##な
##く
##킷
##염
##룡
##ぁ
##매
##뒤
##뉴
##율
##밋
##딸
##ä
##혈
##달
##책
##だ
##젤
##뇌
##팁
##엑
##몸
##톤
##Q
##젠
##튀
##암
##흑
##빠
##충
##됐
##랍
##널
##향
##じ
##ゃ
##ね
##は
##팔
##쁘
##흥
##롱
##샴
##푸
##펭
##귄
##윌
##넷
##퀘
##텔
##끌
##핀
##ひ
##か
##や
##が
##큼
##き
##い
##ょ
##ぶ
##셰
##さ
##갑
##セ
##취
##섬
##엇
##축
##듬
##댁
##꽃
##꽝
##룻
##샷
##톡
##농
##렙
##몽
##흉
##ず
##닉
##필
##논
##왜
##곰
##웠
##첨
##벗
##Z
##윈
##쪄
##눔
##뀐
##죽
##료
##쿼
##짱
##χ
##캡
##탯
##뻥
##컷
##펠
##꼴
##찌
##욱
##줄
##ニ
##됩
##้
##า
##น
##ท
##ั
##บ
##ช
##ง
##컴
##뱃
##テ
##レ
##パ
##わ
##を
##Y
##こ
##팜
##탠
##も
##측
##옴
##ヨ
##옥
##ザ
##참
##묘
##겁
##돈
##겐
##덱
##맵
##ど
##앤
##▼
##춘
##ﾃ
##ｯ
##ﾌ
##ﾟ
##に
##ﾀ
##ｰ
##ﾝ
##횡
##헙
##슐
##홈
##엉
##②
##폐
##곤
##빛
##좌
##옌
##꿈
##덤
##럿
##왔
##ㅋ
##숙
##칼
##끄
##켈
##딩
##섹
##덩
##턱
##낙
##팡
##믹
##확
##△
##탐
##녁
##째
##궂
##㎝
##ı
##존
##컨
##ぼ
##ュ
##チ
##톨
##ㅤ
##ㄹ
##ㅙ
##ㄲ
##팟
##넴
##움
##쉐
##밭
##ل
##س
##ط
##ي
##ن
##묵
##뎀
##녕
##콘
##뚜
##랙
##놈
##め
##ゆ
##륜
##в
##и
##л
##н
##г
##р
##д
##ミ
##リ
##접
##빈
##헉
##왕
##싸
##늘
##딜
##낌
##エ
##ィ
##팩
##겸
##밟
##쭉
##깃
##딤
##깊
##q
##ㅣ
##빔
##틴
##색
##궁
##훗
##컬
##톱
##빨
##뇨
##벽
##땅
##헬
##넬
##흰
##㎢
##꼽
##っ
##닌
##ム
##킴
##콩
##듭
##굼
##휘
##힐
##↔
##④
##델
##캔
##슷
##숲
##깔
##걀
##ㅅ
##ㅐ
##ŏ
##햐
##툰
##벰
##졸
##Ⅱ
##픽
##ㄷ
##ㅝ
##슴
##댄
##뀌
##첼
##텐
##カ
##お
##익
##Ⅴ
##꿀
##멋
##ク
##ロ
##≠
##뿔
##끈
##볼
##폰
##ぎ
##죄
##랩
##앞
##り
##げ
##ョ
##흐
##è
##j
##☆
##뽑
##캬
##핫
##え
##ハ
##ト
##ビ
##ア
##싫
##납
##뢰
##넘
##줬
##ダ
##ş
##낮
##つ
##땀
##뚝
##뫼
##괴
##굴
##튼
##せ
##コ
##ッ
##ス
##먹
##웍
##콜
##짓
##プ
##숨
##ō
##홋
##ホ
##ズ
##밍
##났
##퇴
##똥
##킹
##옳
##캇
##냈
##룩
##벚
##럴
##с
##о
##깐
##얼
##ㅡ
##뷰
##읽
##슝
##쭐
##낫
##딴
##컵
##렸
##쉬
##★
##켰
##ㅠ
##값
##뜨
##칩
##뻐
##ペ
##タ
##켄
##벡
##셉
##ガ
##욤
##펑
##쿄
##옛
##▶
##떼
##졌
##쥬
##셋
##첸
##곳
##셨
##싱
##쯔
##잉
##썸
##왓
##랄
##섀
##ë
##①
##없
##셈
##롬
##맥
##ご
##そ
##웰
##ŭ
##몇
##므
##봐
##휴
##렬
##랭
##떤
##ū
##퐁
##혐
##릅
##칙
##틸
##깎
##빵
##씬
##펜
##잘
##흔
##웜
##م
##ا
##ぇ
##딕
##램
##퉁
##톰
##몰
##꾸
##챠
##씩
##캘
##싼
##Ⅰ
##따
##둔
##훔
##쉽
##죌
##탕
##녘
##뼈
##찐
##쨩
##쟈
##バ
##넣
##봄
##봤
##∼
##ァ
##즐
##샵
##⋯
##ナ
##웃
##ジ
##숫
##낑
##ノ
##돋
##넌
##둑
##ふ
##껌
##릿
##ろ
##ゾ
##ヒ
##샹
##릴
##닐
##쌍
##륙
##㎞
##ö
##뜷
##デ
##ウ
##댜
##♬
##략
##욧
##뱅
##쁜
##척
##멈
##ㅌ
##ㅛ
##뭐
##솔
##읍
##좀
##쉘
##끔
##듀
##많
##븐
##탤
##㎒
##슌
##룰
##깨
##앨
##Φ
##オ
##될
##◎
##샌
##쟌
##サ
##몹
##갤
##뮬
##○
##푼
##흡
##ボ
##샛
##랗
##솥
##찜
##팽
##낸
##モ
##핍
##ピ
##⑶
##─
##퀄
##｜
##윗
##빙
##멘
##텨
##む
##섭
##짜
##펫
##렁
##ぐ
##즘
##닥
##쿨
##맛
##쎄
##ㄴ
##겟
##뀜
##돛
##뒀
##♥
##딘
##곁
##뜰
##ㅎ
##ㅒ
##ㅄ
##べ
##ㅇ
##ㅂ
##닭
##릎
##꿔
##깥
##쉼
##괄
##렷
##ゅ
##얄
##탭
##셔
##붉
##륵
##メ
##둠
##컹
##←
##د
##ی
##젝
##룸
##ㅆ
##ㅜ
##ㅊ
##딪
##쌤
##쾌
##찾
##촉
##샨
##š
##↘
##엽
##및
##믈
##°
##댐
##✴
##ｍ
##첩
##놨
##슛
##냉
##털
##숯
##ə
##또
##훙
##앱
##첫
##텟
##횟
##셸
##펙
##팝
##ゼ
##옹
##궤
##퀴
##윕
##쥴
##헌
##옷
##쵸
##ɛ
##ː
##ォ
##풋
##♠
##æ
##ó
##궐
##뛰
##헨
##멍
##킵
##갓
##▲
##ば
##뜻
##삐
##쭈
##냄
##듈
##렵
##츨
##ه
##ر
##쩌
##▣
##밌
##ᆞ
##씹
##～
##뻔
##떡
##붙
##걷
##ｔ
##밥
##햇
##힘
##ケ
##ᆺ
##늙
##찮
##뜬
##갸
##렇
##뷔
##렘
##핌
##댓
##냠
##빗
##뭘
##밧
##숀
##ベ
##섰
##껴
##숍
##뱀
##ゴ
##び
##땠
##겉
##◇
##샘
##툼
##꺼
##뎁
##ぢ
##닢
##Ü
##맘
##잽
##덟
##췌
##ぺ
##팸
##괜
##ヴ
##깝
##낭
##ა
##რ
##ე
##ი
##짐
##я
##셩
##ヌ
##찹
##ㅁ
##ヤ
##ʒ
##룽
##ό
##τ
##ε
##듣
##↗
##멀
##퀸
##끝
##훼
##젖
##꽂
##귤
##Ψ
##ぞ
##랬
##꽤
##껑
##ú
##㈜
##잎
##ü
##깡
##ワ
##ы
##쥰
##툭
##ā
##늠
##촬
##벳
##륭
##팰
##■
##ㅈ
##벞
##놔
##へ
##헀
##냅
##쓸
##깜
##빅
##셴
##칫
##빡
##솜
##밤
##늄
##훨
##짢
##춥
##펴
##녹
##갯
##숭
##옆
##똑
##챌
##깍
##뤄
##엎
##ぽ
##뽕
##갱
##궈
##벅
##헥
##댈
##콕
##엿
##み
##톳
##욘
##밸
##️
##ぴ
##캅
##ł
##ほ
##½
##넨
##띠
##샾
##㎏
##ギ
##곧
##곱
##얀
##펼
##꼭
##짤
##꺾
##붓
##멤
##펨
##돔
##빼
##뉘
##ю
##쎈
##쫑
##겼
##숴
##쇠
##뷸
##헝
##Ω
##샬
##ｼ
##ﾏ
##ｽ
##х
##넛
##ㅏ
##ㅓ
##ㅔ
##삶
##챕
##숏
##캉
##２
##뜩
##훤
##솅
##▷
##ɑ
##줌
##κ
##α
##ρ
##ί
##캣
##헴
##ツ
##캄
##و
##ت
##늉
##ɪ
##υ
##έ
##ς
##덧
##얘
##폿
##탓
##●
##쉴
##㏊
##얍
##헐
##낚
##젼
##쌔
##²
##⊙
##Ⅲ
##왈
##ゥ
##줍
##덮
##ㅢ
##ㄶ
##뺀
##멕
##좁
##ㄨ
##ㄛ
##굳
##└
##둬
##즉
##곶
##♣
##덜
##η
##햄
##떄
##↙
##씀
##퀼
##ү
##겄
##쫄
##ž
##돕
##렀
##쿰
##쾅
##♡
##밝
##컥
##č
##찝
##웽
##ぱ
##ぃ
##뚱
##÷
##￦
##팍
##จ
##ก
##ส
##ว
##ค
##ี
##괭
##싶
##춰
##눗
##콧
##쿤
##쌀
##푀
##ư
##쿡
##쑹
##놉
##씁
##힙
##잦
##맷
##웹
##쥐
##ぬ
##é
##м
##륨
##쩡
##밑
##읜
##㎥
##™
##त
##व
##잌
##켤
##♨
##Б
##듦
##쩍
##≫
##뎃
##띔
##텝
##떵
##μ
##ё
##ж
##썼
##ъ
##з
##б
##썬
##Ｈ
##웡
##Ｄ
##Ｏ
##Ｋ
##Ｉ
##즙
##찻
##◆
##̚
##ㅍ
##≥
##쩔
##ポ
##푹
##믿
##뺑
##갚
##ð
##С
##У
##캥
##긁
##랴
##젭
##왑
##ᅡ
##ᆷ
##띵
##핏
##ｸ
##ﾞ
##쑥
##씻
##벙
##흙
##ß
##∞
##◾
##쑤
##샥
##흠
##끗
##벼
##А
##앉
##Ｒ
##Ｃ
##잼
##ᄆ
##ᆯ
##쪘
##ğ
##겹
##꼈
##묠
##왼
##챳
##늑
##뷴
##া
##꽁
##♧
##ს
##ლ
##펄
##깟
##낱
##뤼
##쳇
##쟤
##꿉
##ソ
##쪼
##떠
##횬
##둡
##ヘ
##볕
##맡
##갖
##ě
##ι
##ο
##윽
##ê
##맬
##츤
##썹
##뉜
##쉰
##썽
##＞
##홑
##뭇
##ѣ
##１
##떳
##셤
##눌
##Ⅸ
##ŋ
##ｭ
##ת
##ש
##ו
##ע
##얏
##붐
##헷
##볶
##ल
##숄
##＜
##눅
##댑
##찢
##퍄
##ز
##뻬
##꿩
##뼘
##늬
##촛
##큅
##컸
##짚
##â
##ｺ
##ｱ
##ヲ
##쏙
##랸
##잃
##ユ
##̯
##뽀
##ك
##팻
##젓
##앳
##휩
##́
##ｏ
##ｅ
##ｕ
##ｉ
##츈
##랏
##좆
##ⓗ
##젊
##걱
##삭
##퀵
##탬
##휠
##ш
##्
##स
##ी
##ा
##न
##ि
##ｧ
##폈
##뮨
##둣
##깽
##뮴
##뒷
##뭉
##짧
##ㅃ
##ㄳ
##깻
##£
##ᄀ
##ო
##붑
##죤
##И
##Н
##К
##О
##Т
##Ц
##ǔ
##덥
##낵
##ع
##ف
##귯
##헛
##윔
##깄
##껄
##봅
##⑨
##︎
##픔
##π
##σ
##ﾄ
##씽
##ʰ
##낳
##〇
##뚫
##엡
##à
##뇰
##챙
##돤
##ø
##ʔ
##넉
##ﾈ
##ㅀ
##촐
##촘
##촨
##똘
##찔
##＝
##땜
##⅓
##땡
##먀
##빤
##−
##㎜
##왁
##앰
##괘
##ǒ
##י
##㎾
##떻
##뻗
##깅
##슥
##뿜
##뜸
##햅
##웁
##굣
##넓
##귈
##릇
##땄
##낄
##솟
##떨
##쌈
##뵤
##븨
##ᄂ
##ᆫ
##됬
##녔
##쨔
##７
##Ｅ
##ᄃ
##ᆨ
##ᄒ
##뜯
##옐
##€
##뱉
##핥
##렝
##맙
##핸
##ì
##첵
##ה
##뭄
##│
##댕
##챘
##싯
##믐
##큭
##튠
##몫
##쫓
##뇽
##눕
##쥔
##튤
##빽
##ぷ
##슘
##퓌
##덫
##쏠
##퉜
##훌
##뼛
##گ
##젯
##펐
##넵
##핼
##윅
##ᄅ
##줏
##ゲ
##헹
##∙
##ﾊ
##̞
##쾡
##뎐
##찼
##틈
##닿
##굉
##묻
##ɔ
##∀
##쩜
##웩
##빴
##쌓
##↕
##텡
##ά
##짬
##돠
##꺽
##늪
##퓰
##돗
##ɾ
##ˈ
##딛
##φ
##ф
##숱
##ِ
##맸
##ｗ
##ざ
##ò
##뺌
##ˋ
##귓
##ق
##ᅳ
##ⓕ
##뚤
##뮈
##얜
##λ
##＋
##ㅗ
##ㄾ
##ㄼ
##⅔
##М
##묶
##큘
##땁
##ﾛ
##ｻ
##굽
##낀
##퍽
##쟉
##ή
##겪
##뱁
##뛸
##ⓐ
##ц
##ʻ
##뤠
##뎌
##픠
##긍
##홉
##깁
##잿
##ุ
##ม
##ไ
##ห
##ร
##볍
##얗
##멩
##ָ
##מ
##₂
##멓
##◀
##쁨
##ｷ
##퀀
##뭔
##꾹
##췄
##꿰
##뻘
##텅
##닙
##６
##Ｓ
##놋
##ｾ
##쉈
##ㄻ
##ㅚ
##ù
##끓
##ㅟ
##ㄽ
##п
##э
##듸
##쉔
##퓸
##º
##뮌
##♭
##켐
##ぉ
##ᅀ
##ᄫ
##Ö
##씰
##웻
##잣
##і
##↖
##갭
##뾰
##쓱
##삑
##⇒
##㏈
##┃
##샀
##콸
##③
##ñ
##❤
##щ
##닦
##훅
##옮
##ј
##⑲
##ᅧ
##Ａ
##Ｐ
##Ｙ
##５
##짠
##ㄸ
##ة
##맺
##쫒
##벵
##û
##힛
##É
##쟝
##฿
##쭘
##Ｔ
##Ｇ
##썅
##붇
##ᄯ
##ᄠ
##ν
##셌
##싹
##㏄
##î
##좃
##몐
##늦
##ǎ
##َ
##㎧
##̃
##づ
##㎟
##ㅖ
##윳
##뗀
##씌
##θ
##ω
##콱
##ｲ
##đ
##✓
##Ｕ
##엌
##엥
##냑
##툽
##क
##멱
##끊
##챗
##ش
##쯧
##찡
##்
##ゐ
##뙤
##꿋
##띄
##☠
##굵
##딫
##켑
##톈
##쳉
##텃
##갬
##å
##꿍
##Ⅳ
##녜
##갇
##꼼
##볏
##껸
##흄
##갠
##ξ
##ک
##ᄎ
##뵈
##Ｎ
##ㅉ
##ㄿ
##ר
##휙
##챱
##짙
##섣
##◈
##쨰
##닳
##쁠
##⑧
##삘
##좡
##่
##ب
##븀
##얹
##샐
##♤
##랠
##ן
##괸
##Д
##Р
##낡
##밈
##팥
##룀
##ㄺ
##칵
##떴
##✅
##왠
##훍
##얻
##됴
##ń
##β
##ύ
##ã
##ℓ
##쌩
##탸
##볐
##맣
##쓴
##긔
##뺐
##В
##ئ
##ב
##ל
##ң
##®
##ぅ
##긱
##듐
##א
##멎
##र
##ह
##म
##㎍
##쿳
##썩
##뛴
##짖
##ƒ
##Ё
##Я
##냔
##㎑
##ӕ
##П
##쭝
##ế
##팠
##￥
##쑨
##µ
##깬
##빚
##뻣
##쌉
##괌
##숑
##잰
##쏜
##챤
##톄
##솝
##ﾙ
##쌘
##¥
##괵
##🚌
##쏟
##꽈
##옻
##ɕ
##냇
##앴
##ד
##츙
##ｹ
##य
##햏
##팃
##８
##ㅞ
##콴
##ă
##몄
##ﾋ
##ﾘ
##쩐
##พ
##์
##ต
##쿱
##꾀
##짭
##퉤
##꼰
##ص
##ﾗ
##낯
##±
##빰
##얌
##썻
##뺏
##텼
##ㄧ
##ˇ
##ɹ
##ɡ
##쐐
##큥
##４
##ㅘ
##꽉
##▽
##ώ
##춧
##³
##욜
##ᅵ
##⑫
##췬
##맆
##싣
##흩
##슾
##ｳ
##ﾅ
##쉭
##쏴
##쇳
##뿡
##읏
##ج
##쳄
##ｨ
##겅
##솀
##튿
##ⓝ
##귐
##ヽ
##닼
##쇽
##ʃ
##셍
##♦
##탉
##젋
##ㅕ
##➡
##ý
##Ｌ
##쨋
##륀
##춋
##₩
##넝
##Ⅷ
##챰
##퐈
##붸
##♯
##ζ
##γ
##옙
##듄
##맑
##ᄋ
##깠
##े
##롸
##Α
##Σ
##Ι
##Λ
##Ε
##Ν
##⇔
##쫌
##♀
##빳
##얇
##뤘
##┣
##펩
##ﾁ
##뚠
##컁
##ล
##ิ
##뀨
##꺄
##벧
##츔
##ć
##윰
##쨌
##ï
##탔
##０
##ㄵ
##궜
##팹
##튕
##쭤
##쥘
##뎬
##∥
##ﾚ
##㎿
##묭
##끽
##Ç
##⑮
##ᄌ
##ं
##Ｍ
##ａ
##Ｘ
##ô
##앜
##욥
##쫀
##ｩ
##ｶ
##ｮ
##ᇰ
##맏
##̍
##휼
##뷜
##█
##˚
##껀
##롄
##ᆡ
##ᆼ
##넋
##쉑
##펍
##أ
##ǐ
##ɨ
##쏭
##켠
##ย
##띤
##Л
##ᠢ
##ᠨ
##ᠪ
##ᠠ
##ᠯ
##엾
##ɐ
##Ø
##냘
##젱
##ज
##ग
##㎉
##≪
##졔
##ệ
##ә
##앍
##쬐
##δ
##돚
##ą
##묜
##슭
##ր
##쒀
##쩨
##เ
##ด
##็
##ะ
##อ
##믄
##ㄥ
##뿅
##ᡵ
##ᠣ
##ᠰ
##ո
##ُ
##ᅮ
##Ō
##훠
##¹
##쾨
##퀑
##텁
##틔
##ㅑ
##뵐
##ป
##랖
##엮
##딨
##▨
##ᠮ
##ᡠ
##≒
##ⓟ
##ｵ
##헣
##맴
##¼
##꼿
##ᡩ
##ç
##띈
##삥
##ⁿ
##떫
##３
##뱌
##믜
##Ó
##ө
##ｇ
##젔
##þ
##Ｖ
##┗
##갛
##ʲ
##힝
##꽐
##ɯ
##믓
##먄
##З
##Г
##⑦
##꿨
##뭣
##ﾉ
##㎖
##꼐
##튈
##ᠭ
##ạ
##쑈
##겻
##쌌
##끙
##㎚
##맢
##뮐
##팎
##졍
##휨
##💕
##흣
##셧
##슉
##쩝
##ّ
##ح
##◉
##쮸
##닻
##🌏
##쌕
##⑩
##⑥
##⑤
##ⓑ
##≤
##━
##뽈
##쳬
##뒬
##꺠
##졋
##쉿
##쳅
##Δ
##뀔
##뽁
##햣
##눙
##컫
##ᠩ
##Ж
##뿍
##뉠
##▩
##Х
##읭
##Ｆ
##룔
##㎐
##뼉
##Ｂ
##겡
##훕
##ᅥ
##옇
##뻤
##ᡳ
##홧
##횽
##앓
##뺨
##겋
##ْ
##ơ
##͡
##ʌ
##껫
##₡
##ु
##팼
##░
##▒
##▓
##㎛
##إ
##샙
##뫄
##걔
##떽
##ả
##앎
##캰
##퉈
##Ⅵ
##큔
##섕
##㎓
##ʊ
##윾
##짹
##볜
##궃
##뒹
##Е
##칰
##돝
##⬅
##볘
##웸
##흭
##Ⓐ
##נ
##Ⅶ
##쒸
##☞
##Τ
##탰
##텄
##Ｊ
##ᡝ
##렜
##짰
##롈
##멬
##쿈
##Ş
##İ
##큠
##좔
##륄
##넸
##씸
##ｴ
##꽥
##ᡥ
##헵
##☎
##＾
##켕
##Ú
##∴
##맟
##⋅
##슼
##짊
##갗
##ʁ
##ś
##´
##⑪
##옭
##♫
##춉
##윷
##꿇
##ա
##ս
##ն
##ם
##쾰
##깰
##ヅ
##숟
##✲
##틋
##쌰
##◑
##９
##햘
##옉
##밉
##켁
##녠
##✨
##ⓢ
##̀
##얽
##혓
##◦
##غ
##Ｗ
##뽐
##솨
##œ
##ի
##ե
##궨
##ヶ
##Ο
##얕
##츳
##넙
##◯
##〓
##곯
##핳
##ื
##퇘
##ę
##Ⅹ
##ـ
##ｒ
##خ
##줴
##ᄭ
##쏨
##껐
##넹
##넜
##ヂ
##겊
##뭅
##Θ
##☭
##Š
##잤
##쳔
##뷁
##Æ
##ᄉ
##ㄩ
##뉵
##휜
##қ
##㈔
##걍
##ח
##┼
##ᅩ
##⭐
##☏
##갰
##ى
##뺄
##ᄇ
##Ф
##빻
##솎
##쇤
##큿
##땃
##튄
##묀
##갹
##퀜
##퀠
##◁
##뗐
##굶
##밞
##ᡤ
##☜
##쫙
##섶
##뤽
##｀
##آ
##띨
##쟀
##ż
##푯
##✦
##읊
##녈
##솩
##뉼
##ᅣ
##Π
##옼
##Ч
##캑
##삯
##밎
##휀
##엷
##곗
##풉
##큽
##좇
##뵌
##벱
##Ю
##▄
##▀
##Э
##됭
##겍
##섐
##칡
##Γ
##뭍
##￣
##챵
##뢴
##첬
##뗏
##왐
##प
##ộ
##눴
##죗
##옅
##쐈
##្
##폄
##뜀
##땋
##낍
##√
##ʂ
##몆
##큄
##پ
##쐬
##뺴
##꿎
##ᅌ
##Ä
##킼
##솬
##Ш
##쨍
##묄
##ｈ
##퐝
##갉
##삔
##찧
##쀼
##홱
##킁
##뒈
##뾱
##삵
##⌀
##샅
##휑
##Á
##├
##뵙
##홰
##횃
##쁩
##굇
##힉
##멥
##Χ
##츰
##깼
##촥
##ʑ
##⑸
##쎌
##찟
##뭡
##엊
##벛
##븅
##◐
##뷘
##≈
##뎨
##봬
##ﾂ
##푈
##춈
##촤
##씐
##꿏
##낟
##튐
##툿
##늅
##솽
##넒
##잴
##픕
##꺅
##┛
##곪
##Đ
##쏩
##┠
##Č
##땔
##々
##묏
##쭙
##숌
##Μ
##뭥
##뗄
##＄
##푱
##훑
##😇
##왱
##캤
##똠
##샜
##Β
##Κ
##띌
##🏠
##걘
##좍
##Υ
##솁
##휭
##뀝
##꽹
##닯
##읆
##똬
##▸
##돡
##짦
##훵
##ễ
##⠄
##꾐
##ⓚ
##ἐ
##툇
##┏
##⇓
##⣿
##┓
##묽
##뵘
##🚄
##๎
##으로
##에서
##하는
있다
20
##이다
##지만
##했다
##었다
##하고
##한다
##에게
##00
201
있는
##까지
##이라
##들이
##면서
때문
한다
##하게
##에는
##는데
19
10
##적으로
##하다
##부터
##에서는
##적인
경우
##레이
##으며
아니
때문에
##다는
##하기
사용
이후
##리고
자신
##해서
##다고
##스트
공격
##대로
사람
##er
##들의
##하면
##라고
##들은
대한
##였다
12
##하여
##on
##이나
##에도
한국
정도
##들을
##기를
11
가능
다른
위해
##하지
##기도
##리는
##라는
##하며
된다
하지만
##지는
등장
함께
아이
##in
것이
하는
##기에
들어
##았다
##된다
##으나
같은
200
##는다
사실
##니다
##보다
그리고
이상
것으로
하나
시작
했다
##20
##an
모습
15
게임
문제
##리를
##스터
##되었다
지난
일본
##거나
지역
그러
##되는
##이트
없다
##or
만들
생각
##다가
##력을
##되어
##기가
프로
따라
나오
통해
것을
이름
##ar
가장
##지를
##학교
##어서
상황
##리가
모두
##에서도
30
없는
또한
18
다시
추가
##지고
##처럼
시간
##릭터
13
당시
##라이
것이다
##력이
##으면
##at
진행
##이지
16
캐릭터
현재
관련
사이
##이라고
있었
##이라는
##자가
##이고
상대
##기는
##사를
것은
모든
##le
##하면서
하고
100
플레이
많이
##스를
상태
##이는
보여
14
결국
##성이
세계
되었다
##졌다
지원
필요
이어
##en
이용
##들에게
많은
보면
##이며
##9년
##장을
##7년
다만
경기
그런
대표
특히
자신의
##도록
25
##8년
##리즈
있었다
시즌
##가는
##리스
미국
##리아
효과
선수
17
이번
##인다
##자는
##he
아니라
피해
나온
카드
서울
##이었
기술
스킬
물론
##이스
그러나
위한
관계
이유
존재
##해야
매우
라고
##201
상당
전투
기록
##성을
##장은
이런
##st
##사가
##들과
##제로
##인이
그래
##상을
사업
##al
대해
##6년
##ou
아닌
자체
처음
##시간
이미
##스의
199
##지가
##이었다
증가
다음
말했다
해당
##므로
##진다
돌아
운영
그렇
시리즈
일반
##린다
##혔다
##스가
##가지
##거리
역시
##5년
않는
바로
##되었
##하였다
이야
##0년
등을
않고
##시아
##도가
여러
##인데
좋은
방송
##기로
##인지
##시키
모습을
50
##장이
라이
##정을
있어
기본
내용
기준
##부분
##했던
있으며
##에선
##라도
라는
중국
##어나
보고
21
사건
##ic
주인
수도
##it
떨어
영화
##주는
스타
##re
##하자
결과
밝혔다
##됐다
거의
마법
##되고
최대
활동
##지막
아무
국가
있을
수준
##렸다
##이지만
작품
##했고
되어
않은
설명
24
부분
##위원
일부
이를
##4년
##하지만
정부
##로운
계속
같이
지금
##자를
22
마지막
대상
##ol
##자의
##겠다
만들어
##이가
제작
있는데
##000
평가
우리
직접
계획
감독
않는다
보인다
##화를
성공
참고
##am
방어
##ff
##ing
##주의
되는
높은
##습니다
##르는
등의
##아서
대부분
동안
##랜드
달리
23
##전히
이전
##리에
올라
개발
##치를
##인의
##시에
이라고
##이드
에서
이에
교육
인간
##사의
이동
있고
주인공
정도로
##도로
학생
제외
없이
##도를
##으니
능력
전체
##수가
##원이
나타
##전을
다양
##원을
어느
국내
##르면
##마다
않았
예정
사회
40
##3년
비슷
##트를
연구
최고
##2년
##위를
그냥
발생
##사는
##대를
대신
참여
하다
것도
너무
마음
인해
가지고
##있는
##통령
##드는
강화
의미
##수를
##사업
받아
##들도
##스는
##이션
알려
인물
##회의
포함
##치는
정보
##om
레벨
찾아
##ont
##로는
대통령
##어가
상당히
##점을
##스타
그대로
##el
부산
있지만
##스로
학교
좋아
##왔다
##운드
##지도
공개
있다는
##그램
도시
선택
26
언급
##와의
이는
##하려
##명이
타이
##1년
28
2017년
27
실제로
##es
레이
많다
##정이
##리어
여기
##르게
##인을
기업
최근
##dd
문서
##is
과거
다양한
올해
000
사랑
##리지
기존
##이터
##식을
멤버
추진
##19
그녀
##없이
198
확인
##우는
##치가
##드를
크게
어려
여성
font
이날
경우가
출연
##명을
애니
##하는데
데미
시절
영상
##센터
방법
따르면
불가
2018년
##토리
2019년
최종
나오는
중요
자신이
영향
역할
소속
##ion
나온다
몬스터
##ac
자기
##자로
##었고
##경기
##이자
유닛
지난해
지속
##되지
결정
##스템
##번째
인터
31
제공
##국의
유저
경찰
##원의
##이어
##하던
##원은
##준다
##했다고
##대의
아니다
이벤
전문
위치
만큼
원래
있던
만든
구성
그의
제대로
##기의
##회를
##리그
##et
29
##동안
##나는
##전에
##10
않았다
그는
##이기
아직
장면
##과의
문화
엄청
경제
때문이다
##ow
##하였
등이
조금
##등학교
새로운
##as
활용
12월
4월
공식
하지
적용
##교육
##서는
3월
##어난
7월
##리의
##했지만
자유
##il
유명
9월
##과는
가능하다
##있다
##중에
##명의
말을
5월
##ig
유지
판매
##머니
##이를
전국
지나
생산
##ed
##어로
6월
아이템
2016년
우승
##기업
10월
8월
##자인
##nd
한편
##장의
##하기도
##장에서
the
##트가
초반
무기
발표
아버
친구
주민
##지역
최초
##라마
##선을
##BS
사라
이렇
어떤
##이크
이것
국민
감소
바람
##만큼
프리
출신
광주
비해
##ot
전부
전쟁
소환
요구
비교
##ad
ht
##물을
1월
강력
사망
정말
기대
##인은
정신
서로
시민
##으로는
프로그램
자주
준비
##전에서
보여주
60
##수는
회복
대학
##드가
##지로
있다고
변경
으로
주장
노래
11월
##ch
살아
##격을
현대
##났다
해도
설정
드러
##했을
정치
##려고
중심
발매
주변
차량
공격력
##하거나
##운데
가진
참고로
##히려
이때
부족
사람이
적이
배우
없어
인천
설치
##iv
##같은
##비스
당연
먼저
그것
그런데
오히려
##움을
하면
자동
##버스
사진
##점이
알고
상승
주로
좋다
##수의
방식
마찬
파괴
##트로
##드의
##ay
##나가
있어서
후반
리그
의해
##음을
##일에
만나
가까
##와는
사실상
마찬가지
##대가
이루
##는지
시스템
더욱
##동을
되고
##대에
마을
##오는
후보
##밖에
35
있도록
또는
##지의
어떻
##에서의
음악
##었던
##id
슈퍼
같다
##임을
하며
2월
##프트
##레벨
특수
32
##제를
##대한
여자
이러
특별
##분에
차지
##ub
##이도
2015년
##리카
##상이
안전
##감을
##의를
2019
승리
##였던
이라
##한다는
##지어
성능
받고
##기관
이렇게
모델
보통
출시
대한민
유일
역사
삼성
주요
##르고
형태
##장에
환경
##나라
어떻게
힘들
확률
##화가
00
동시에
가족
##적이
게다가
##약을
기간
of
드래
이야기
그래서
의견
##디오
오는
관심
개인
어린
아예
##어를
내려
##사로
하루
가격
마련
##어도
##간다
일단
##시켜
자세
생활
위해서
않아
##리오
선정
민주
개최
기타
장비
가운데
st
##나마
비롯
##지에
과정
이제
선발
들어가
##대학교
##라인
##구를
받은
##만원
나가
##른다
##더라도
##내는
발견
인정
##드로
일이
##화에서
그렇게
비슷한
모양
스테
영웅
참가
##했으며
스트
##11
해결
##위원회
아래
힘을
##도시
기능
각각
##스크
##메이션
대회
문제가
심지어
대구
이벤트
바뀌
기사
관리
경험
사고
한번
2차
프랑
##ro
##계를
##다면
발동
미래
전혀
특성
논란
독일
##군의
##도의
버전
얼굴
##문을
##스와
있게
##이기도
대전
북한
이라는
##니까
대해서
그래도
넘어
완전히
국제
##문화
##시즌
고려
1일
담당
얼마
##50
제품
월드
##개의
기억
실제
##체를
##시는
성장
혹은
비판
표현
정확
작중
반응
##했다는
특징
바이
실패
없었다
보스
##보면
시청
##제가
순간
성격
산업
불가능
##마트
노선
어렵
남자
##니아
조사
##가가
지방
움직
전에
공동
##us
##치고
##부를
가능한
중앙
앞으로
진출
때는
정책
##ir
##지지
경쟁
드라마
##산업
##시킨
공연
행정
##인물
성우
##시설
##인트
분위
조합
가능성이
동일
않다
##학생
이해
##권을
##보다는
위험
선거
##도는
##사와
이러한
오후
##한다고
2017
굉장
체력
St
##억원
##체가
수록
적극
있기
##안을
가져
오브
##세대
##했는데
소개
##200
제주
Lv
관계자는
조선
패배
더불
197
##해도
37
규모
예상
##대표
원작
##게임
##ag
##수로
플레이어
되었
##개요
대한민국
##우스
그림
항목
현실
##장으로
집중
못한
해외
##어버
##조차
예정이다
조건
대체
##스러
상위
자리
2014년
SK
##ER
애니메이션
수비
##라가
더불어
명칭
##라운드
The
##리기
보호
##부는
70
드래곤
##피소
##라면
##아가
##프로
하는데
##적을
목표
##학년
쓰는
##th
##피언
밝혀
했지만
시간이
획득
처리
##합니다
스토리
그나마
덕분에
##수록
구조
하이
등으로
##량이
앨범
##행을
##간에
자신을
피해를
##기술
80
##리티
##파트
마이
##시가
참조
##un
시점
방문
##ur
##공격
못하고
아마
상대로
여담
방향
역할을
건물
##지원
##라의
해서
##부의
##가를
제한
1위
##BC
##되면서
##이었던
자체가
입장
스페
관광
가지
수상
##겠다고
경우도
500
##이의
##겠지만
개선
##소년
##im
자연
한정
영국
어디
##로서
##대는
확보
번째
개요
그리
##사에
##레이드
지하
다이
행동
##들에
##냈다
에피소
전용
데뷔
이하
조성
##ut
정상
##문에
않을
쉽게
강력한
받는
목소
내가
버스
##부가
다르
없고
45
##티브
단순
##한테
##부에
2000
노력
기관
대비
확실
##ht
여전히
나와
##소를
##상의
##어진
투자
이름을
TV
33
보내
##px
강조
##개월
결혼
##전이
##갔다
굉장히
제2
사용하는
구축
공격을
##치로
##했으나
각종
##개를
폭발
울산
받았다
챔피언
경기도
사람들이
##으므로
##으면서
진짜
건설
등장하는
일정
분야
제1
물리
##구가
##히는
##시의
##군이
##yle
주는
평균
##해주
##되며
36
##자와
어머니
##이라면
연속
##자들이
##대학
보니
##업을
불구
편이다
등에
##식이
에너
##없는
아주
가는
##일부터
사용할
말이
2018
##하다는
충분
발전
##mm
##시장
알아
##ak
##상으로
메이
나머
대미
1년
01
##일까지
##uby
소재
##od
앞서
잘못
##연구
실시
반면
무시
주의
따라서
강한
ruby
우주
##으로서
남아
확대
필요한
동료
##놓고
##ent
나는
소비
도입
보는
##트의
마찬가지로
시설
판단
기반
##움이
블랙
수가
##ec
나서
나왔다
의원
활약
혼자
##서를
##세를
##가의
영향을
##iz
##자리
분석
##ml
마스터
최소
##나이
패턴
##디어
##겠다는
있었던
됐다
차단
열린
오른
지정
연결
작은
엄청난
당연히
2020
##시키는
훨씬
초기
##까지는
##이즈
##0년대
##방송
문제는
09
크리스
##금을
달성
##레스
두고
조직
##위가
선보
하자
스스로
잡아
본인
무엇
##로를
##운동
가면
누구
##타를
##겼다
쓰러
##이면
style
03
사례
클리어
##12
대응
라인
LG
나왔
##신을
외국
지적
##입니다
##만한
확정
유럽
##대회
받았
05
발사
러시아
파워
일으
##력은
2013년
##리와
##만에
이유로
300
해야
html
안정
히로
##리로
오늘
##려서
02
불구하고
추정
전략
약간
##기고
##자기
##비를
##은행
##지션
##료를
등장인물
여기서
##원으로
##하나
대상으로
느낌
항공
기준으로
##난다
것에
2016
##이버
##위로
##무를
되면
낮은
중요한
축구
##ST
나이
속성
##ik
지구
##페이지
##일을
you
196
검찰
이유는
##위에
##점으로
아르
배경
90
라며
34
건강
##개발
08
크로
##기와
보다
취급
##프를
적을
07
소모
##정도
##단의
##지와
##고를
우수
##하겠다
반대
들고
신청
##들로
06
전반
보유
유니
##30
롯데
##텐츠
보이는
##만이
##조건
1회
##em
오래
##포츠
##세계
##차를
서비스
##에게는
상황에서
##라를
높다
##함을
공간
이상의
##량을
##어들
##한국
아이돌
종료
##관이
##같이
구매
##키는
퀘스트
방영
시도
##원에
구간
이라며
독립
도망
타고
그가
달라
인터뷰
이끌
우선
##학과
##신이
방면
기념
##ight
##하다고
##다운
교통
##명은
절대
모드
##유의
타입
##스티
영어
##카이
특정
##스럽
졸업
본격
되지
##리며
운행
후에
하기
##듯이
##정보
##그룹
##관리
훈련
갖고
##성은
##당한
미션
속도
자랑
##만을
브라
38
##회가
생존
##나게
출전
##ap
예산
스마트
하면서
부활
##ve
##시를
그를
대사
다니
전망
##데이트
아군
시행
##상에
FC
등장한다
수정
##보는
못했다
계약
##진을
##일이
장착
일을
사실을
##로가
##um
유리
글로
##려는
##두고
2012년
프랑스
##율이
연기
##환경
##os
계획이다
밖에
전기
##되면
##말로
##ver
이뤄
엔딩
##cm
수출
지켜
##장과
##스코
##ul
04
경우는
##하라
참석
##지기
연출
##보고
받을
스피
##롭게
과정에서
##카드
##력으로
활성
##트는
##단을
##마저
중에
만드는
##원에서
한다는
제목
청년
##민주
나머지
HP
1차
계열
##비가
통합
나무
##어야
##and
분노
##져서
메인
마무
##물이
번역
투입
신경
발언
업데이트
대형
지도
모습이
##전의
##단계
제국
##olor
요청
제외한
in
에피소드
부여
##이로
금융
##단체
빠른
##신의
따른
우려
##시로
높아
##초에
홍보
##단이
##비아
##사회
##이브
##주고
운동
##플레이
##리면
##다니
자세한
효과를
부정
##지게
##tp
부모
##이라도
배틀
행복
사람은
##스러운
시장
검은
2년
그룹
촬영
불러
##ce
##켓몬
##성과
어려운
직업
근접
벌어
야구
##진이
난이도
미사
##크로
얻을
만약
to
##었지만
못하는
능력을
인사
최고의
과학
항상
55
이야기를
##러스
괜찮
이루어
공공
##만의
생긴
부담
##마을
교체
좋지
3일
Ch
상황이
종류
##내고
##성의
고양
##심을
##계가
디자인
##타로
만화
노동
위원
##야마
말한다
전설
시간을
변화
국회
유튜
color
비밀
##시마
##감이
것과
이와
##TV
기다
##하다가
비행
##주를
끝나
##AR
##해진
##교통
없을
##하기로
##드시
정도의
안에
##리게
반영
소설
이다
##치기
가끔
비용
브랜드
##군은
##종의
##타임
적은
##시켰
##여서
없다는
##지면
행사
협력
점을
##위는
##냐고
##인으로
케이
##스킬
75
##음에도
전통
##였고
핵심
프로젝
있다면
이탈
##라서
이용해
위에
이외
아니고
여담으로
##자들의
소녀
수행
설립
48
KBS
관한
사무
##주시
여기에
지휘
추천
목록
상품
##AN
##되었고
클래
지지
##만으로
종합
언제
하늘
##수도
현재는
수는
##선이
보이
##능력
39
일어나
##쳤다
##차가
희망
언론
##되기
결승
##크를
싸우
고객
업무
시험
모르
역대
##지면서
따로
스파
##카와
대부분의
##미가
##고는
다르게
##정한
정식
##더니
생명
##하도록
##ard
##호가
##40
바람에
스토
##ation
빠르게
거기
##요일
##부로
달려
##ON
##부터는
스테이지
도전
나올
표기
갑자기
제일
##소가
##었다고
##정은
정작
##세가
##냐는
엘리
보기
##으로써
전북
##었는데
아프
##스테
유명한
장관
2일
##아이
대화
##ize
없음
타카
##호를
##경제
42
##규모
완성
전환
압도
아버지
반드시
오전
##받은
있으니
내년
vs
##았던
##세요
1000
홈페이지
포켓몬
회사
않게
##ter
악마
심각
비중
##op
중심으로
2011년
##상은
공중
배치
접근
##ab
##스케
별로
##러스트
맞아
나름
##버린
기획
하였다
인한
##oc
글로벌
전남
있으면
##선수
싱글
2015
제시
##명으로
시작했다
전작
194
##생활
식으로
##과를
치료
인터넷
하게
##역을
남성
듣고
부르
가까운
##외로
처음으로
시전
##화된
등급
중이다
대기
파티
##IN
나타나
것이라고
비롯한
3년
##미를
새로
나라
http
효과가
##야말로
없다고
##km
마무리
하여
##에만
제거
##15
책임
단체
일행
2010년
본인이
수원
일본의
##제의
남은
##기간
##스에
빠져
거쳐
포인트
종족
최강
이게
물건
##18
링크
경우에는
범죄
##계의
##마자
##계획
5일
부탁
주목
포기
만에
##고등학교
차이가
##도에
##바람
이름이
##16
느끼
맞춰
주문
10일
size
경영
도로
연습
머리
##정에
##ack
작곡
무슨
사냥
자리를
게임을
직후
각성
준다
완벽
##ia
사이트
있으나
많아
이걸
##구의
##ra
15일
아카
##점은
##씨는
##모토
동물
장애
##대전
그동안
##라스
다크
전달
이곳
정규
##한다면
##나의
했던
##주로
데이터
202
잠시
아키
대중
지급
43
##관을
##이닝
무려
##가와
IP
2개
복귀
변신
3개
연계
이쪽
##실을
치명
완전
민간
타격
탈출
국회의
뒤에
공유
##ep
묘사
바다
바꾸
분명
작업
##로우
저지
소리
##다른
통한
재판
때마다
##림픽
꾸준
블루
47
4일
##이란
데미지
20일
##세트
##ri
##IC
공급
지상
주고
##복지
여행
2020년
##화의
##받는
##트라
##시티
44
25일
경기를
99
##버렸다
##낸다
평소
통과
##13
아들
의혹
제기
##주가
150
사용자가
여름
##인과
아니면
##자들은
##구는
이사
업그
##니티
##인가
로봇
##이니
##ge
개념
최초로
맞는
애초에
회피
체험
명령
온라인
근처
##FF
제조
트리
끝에
중간
설명했다
다소
195
중인
투수
##방을
도착
등록
끌어
##세기
##분이
라이브
죽음
##사항
58
수사
문제를
##정부
##선의
내부
##공항
##체육
##회는
EX
7일
##니스
강원
삭제
돌아가
##화에
##속도
불법
##치의
##적이다
th
아시아
##주년
##보니
전개
유튜브
2회
인도
활동을
불과
46
In
##트리
##48
충격
고정
##특별
신규
상태에서
나중에
앞에
말에
건담
##력과
##성에
면서
리더
##어의
날아
도와
죽은
않으면
이건
현장
알게
##광역
기자
##었을
보조
##랐다
보였다
장소
완료
등장한
정의
28일
##정의
##터를
sp
상관
특이
선생
##ers
이들은
경남
코스
카운
했으나
주소
14일
현지
충분히
미니
##시킬
##어요
52
사람을
작가
동생
이후로
지키
##공사
어둠
기계
스포츠
##버린다
##들어
사태
##일러
예를
18일
그린
분류
올려
빨리
서비
대해서는
뛰어난
고용
단계
쓰고
##바이
##너스
##체는
##장판
1개
##로드
인식
##마가
유일하게
11일
중에서
##문이
##ie
##자에
존재한다
##ill
27일
포지션
전시
26일
인기
상당한
민주당
군사
했는데
##분을
유사
연합
21일
없지만
화면
타이틀
채용
##많은
##온다
아내
8일
제안
청소년
##일본
고민
##AT
조종
##해졌다
디지
아름
##미널
바탕
파이
##질을
탈락
일러스트
생각해
##술을
##형을
65
직원
유일한
에너지
##로의
##속성
살해
마음을
정리
##석이
##의로
19일
범위
##우가
바라
합류
MBC
22일
위협
##로그
봐도
##14
##기사
##적으로는
청와
##프가
혁신
17일
자동차
##수한
감사
좋아하는
기동
and
운용
소유
##시브
점점
레드
##호선
24일
이름은
##탄을
상태로
히어로
##간의
##르크
떠나
##타가
##즈의
광역
스크
베이
##로부터
가르
월드컵
수요
##지라
돈을
도움이
12일
제3
상황을
##사고
##단은
##ort
거래
오프
보여준다
강조했다
장기
위치한
희생
##등급
23일
##라우
2014
##승을
있었고
##체의
홈런
카드를
##ea
오버
##마의
음식
##무원
##재인
의료
##려면
받는다
상징
가수
자체는
외에도
##레인
다행
400
도쿄
맞추
30일
보아
##안전
49
파악
##제는
것처럼
수밖에
##60
손을
무조건
##이와
13일
중소
반대로
##군을
6일
본래
탓에
실험
앞에서
저항
진입
##자에게
##법을
이로
공포
##용으로
내용을
##무라
##것도
##17
없어서
얼마나
##라이더
##률이
MA
##ue
싸움
아파트
프레
##단지
확장
카메
##art
##경찰
보상
트위
##IA
16일
##ate
추측
교수
선언
평범
도중
##지며
지배
듯하다
##하였고
##구에
9일
유치
오랜
전했다
fff
제외하면
불안
사이에
##효과
효율
거부
워낙
반복
채널
그녀의
위의
조작
기술을
##과학
##80
##이야
까지
연장
가입
그야말로
1번
관련된
##대에서
힘든
##크가
점이
##평가
전차
이적
##kg
사기
##시키고
다루
약속
필요하다
지난달
의원은
아무리
##정책
사용한다
사항
정보를
논의
##전자
##먼트
개그
##보를
##품을
##민주당
대결
수많은
공략
되는데
##조사
인근
있었는데
뛰어
설계
##석을
한다고
내용은
싫어
무한
##all
##선거
사는
의외로
차례
##문의
투표
MS
특유의
##란드
그걸
##나무
굳이
중단
전사
아쉬
##정으로
Sh
##관계
##제에
##했기
##별로
듯한
##이에
29일
전자
옵션
##지에서
영혼
No
##관광
세트
##였으나
마사
2009년
도움을
장갑
아스
논란이
##우고
최후
허용
있었지만
젊은
감안
##였지만
##힌다
##산을
##인들이
##활동
##트남
진화
##터가
마나
##서관
능력이
##진의
이탈리아
##ast
확률로
무리
##웠다
있지
지금은
KT
##식으로
59
시대
무장
스타일
##력의
연재
##OR
##해를
성적
##eat
인구
하나로
120
1만
추가로
오리지
금지
팀의
##아버
했고
##론을
기본적으로
##시오
카이
표시
##ell
미세
입고
전문가
시리즈의
파일
경기에서
데미지를
##키가
성향
보도
##키의
가서
평화
살인
영입
2000년
##증을
받지
버그
##받고
그럼
##스럽게
##성도
##의회
점에서
div
##리온
##사용
작성
파트
활성화
##레이션
##개로
있습니다
몇몇
겨울
하드
##진은
종종
패치
중반
##구역
붉은
##전쟁
체육
문재인
##았고
##보다도
에이
때도
##모를
마치
다르다
다운
영업
시기
평가를
적절
시나
##fff
생각하면
암살
포함한
크다
##주차
##란다
##항공
본인의
##고속
말하는
남편
미리
##판을
56
펼쳐
사업을
193
수입
##VE
매출
스코
ffffff
SP
필요가
걱정
부하
광고
후속
개정
어린이
##래도
사전
##느냐
않지만
적의
바탕으로
64
그때
오르
기록했다
트럼
##시와
##ine
나오지
##음이
신고
##되었으며
##시킨다
##방에
##ED
##하려는
관심을
##마를
거짓
갈등
패러
모아
지금까지
명중
##랫폼
내에서
꾸준히
가깝
이기
한국의
신뢰
##하려고
##쪽으로
플래
나오고
##지자
10년
거기에
AI
만족
장면이
Sp
##25
54
조정
##보자
불리
고속
모르는
어렵다
##드에
소련
##북도
센터
태양
둘러
눈에
야마
때까지
53
되었고
##AM
##단에
무너
덧붙
사회적
##ant
바닥
57
##가능
##자치
##리스트
마리
##스토
##ct
사격
기존의
##소녀
예술
얻어
불편
##공원
그려
출발
대표적인
화염
몸을
##시대
##경을
간단
거리
안타
##ive
##안이
##놓은
강제
필수
##AL
##동생
##사건
##지방
최대한
##치게
##이므로
먹고
얘기
모습으로
##전은
SBS
2013
VS
##당이
##래프트
나이트
아는
##철도
커뮤
##어는
##회에서
##해진다
2008년
PC
무료
개봉
단독
사람의
컴퓨
사람들은
##NS
클럽
보급
비난
##드와
체력이
나누
2번
##졌고
목숨
이름으로
##oo
1인
사과
막아
##바일
돌려
프로젝트
##이상
##연합
하락
가정
##나와
달러
원하는
장난
상세
아니지만
근무
##하니
##미의
##위의
##든지
실질
부분이
유도
##전으로
빼앗
##권이
##적이고
##실에서
요리
##티어
재미
검토
##병원
단순히
뿐만
기여
##크의
개편
대단
게시
미국의
고통
방어력
##친다
자원
생성
종교
##주택
##르트
합의
##한데
늘어나
오리지널
초대
개조
##주민
변호
데려
착용
##ない
베트남
일어
소년
##PS
##스에서
붙어
좀비
난이
##에게서
측면
무사
누군
싶은
##리자
특성상
##ll
원정
그저
##아의
요시
##르의
기회를
서버
##반기
##영화
상처
사쿠
부대
##패를
지속적으로
순위
갤러
3회
에어
놓고
되면서
올라가
관객
##하자면
##광역시
##사에서
주택
제출
점프
##관은
점은
이란
의심
##PC
II
철도
살아남
돌파
You
대책
탑재
##르기
자료
##로도
적에게
##드리
##카가
구입
com
저격
인상
85
5년
##사이
가슴
프로듀
브레이
##호의
##었다는
##나다
인생
##영상
필살
##부와
Bl
이용한
방침
카페
##모리
서브
느껴
서술
컨셉
선물
업체
득점
건축
이들
해제
대표는
수익
늘어
##권의
##으로부터
##ne
##서의
##리트
##트롤
속에서
오토
##답게
방식으로
외교
##AS
손에
Re
원거리
ST
##if
##예술
##심히
##바로
은퇴
##형이
근거
4개
##조의
##업체
황금
66
##호는
##AC
##ip
##★★
주도
승리를
##연히
미드
오픈
오오
회의
것이라는
##왕의
외국인
##히고
더블
##자동
지역의
나쁘
##마법
당장
증거
한화
정부가
보수
##ist
이재
지닌
인기가
##리면서
일은
말고
꽤나
관통
##상태
##달러
의하면
스위
소통
##사카
##FC
북미
##ss
바꿔
인기를
수준의
이유가
##차로
##이었고
팀이
##통신
##임이
가게
잡고
날려
말았다
##량은
##때문에
##발전
못해
##질이
##었으나
골드
##피스
##받아
##서가
요소
어울
발굴
테마
##사인
##버리는
##악의
##씨가
2012
만한
콘텐츠
확실히
##섰다
시작한
부상
##에게도
##ang
해석
##구나
분리
##치지
##도와
재생
하나의
https
주력
##199
몰아
아프리카
제압
위해서는
수치
##즈가
절반
고등학교
##워서
##가로
차이
기초
비롯해
앞두고
방해
##당의
목적
##대와
국회의원
스카
먹는
성우는
##프레
트럼프
거주
업그레이드
길을
시는
##24
상황에
##줬다
힘이
육성
span
토론
##회에
##러가
모험
##모가
끝난
##복을
시내
홍콩
2루
부르는
ddd
모바일
있었으나
향후
##국이
마침
떨어진
##지컬
멀티
농업
시작한다
##ong
엔진
km
솔로
알려져
예비
재료
구속
##이라서
대답
##도우
##거운
##니어
편의
죽을
##70
##소속
SS
그만
아침
##동이
##계에
##하므로
2위
##량의
발휘
##이던
명의
기체
임시
인공
비고
나선
향해
줄어들
##나를
로드
##ddd
의견을
두산
##ain
보이지
지원을
거대한
##쪽에
##크래프트
13px
프리미
끝까지
dddddd
수호
맞고
##피아
##지구
구체
41
상대적으로
##함이
코너
##58
걸어
구분
##디션
##포를
보컬
모티브
or
##본부
편집
##공을
##점에서
##렀다
던전
우리나라
매년
비교적
동아
##ith
그에
그레이
최초의
못한다
유우
##OS
디자
명예
상대가
##선에
직전
##각을
드라이
이미지
##무기
##시켰다
Th
자신은
##자들
##류를
열심히
##안타
##iki
레어
카즈
##원과
##이름
##르가
쓰레
600
회장
아나
에이스
5개
가득
연주
##모로
자유한국
##EC
내용이
액션
딱히
##미는
문제로
차별
당선
##력에
##역으로
##자들을
취소
적극적으로
AP
##디아
캐릭터가
##조를
##에서만
관심이
2007년
녀석
임무
##달라고
##메달
네이버
우리가
세종
물어
##라와
##ry
체결
쏟아
타임
다름
##즈를
##물의
##리안
밀어
게이
누가
불명
만난
이야기가
보병
국립
라이트
일자리
되기
신체
쿨타임
##임에도
왔다
##시스
##골을
나타났다
위반
끝내
없기
미세먼
대규모
62
생기
알려졌다
짧은
##남도
사상
눈을
##비는
##est
버프
##이치
이후에
Ar
##ove
##건설
명이
예고
부터
스킬을
거두
형태로
스케
정부의
플랫폼
##신은
평범한
##마스
보여주는
##보기
한글
반발
##당은
카오
시나리오
잠깐
만들었다
##조가
미사일
코믹
95
받아들
뮤직
듀얼
곳에
궁극
불리는
예전
##동산
##역이
대통령은
##락을
속에
화장
##상에서
속도가
##다시
##하이
탄생
000000
올림픽
흡수
창업
##감독
사실이
트레이
신설
##안에
김성
##전사
##FA
라디오
해군
어찌
마르
겨우
로마
유통
바뀐
본인은
점령
##ame
더불어민주당
##사랑
##격이
##이었으나
##렸고
##을때
##세이
소울
##코의
##타는
##아파트
##카의
##구로
안내
##트와
##아웃
##루스
만들고
##잖아
모자
디스
전면
데이
밸런
##협회
##론이
싶어
##였는데
##담을
##마리
다가
등에서
##방의
컨트롤
만들어진
1위를
형성
공통
##수와
커뮤니티
##민의
많았다
일반적인
자살
##로스
##ly
봉인
해금
집에
##루가
힘들다
어느정도
엄청나게
##었으며
취업
##미야
등은
자신에게
히트
되며
탑승
병사
이전에
팀을
##코가
##oth
##per
아웃
사용한
레전
멀리
##화에서는
##랭크
유용
했다고
##터리
만다
통신
페이스
##율을
##IT
##ld
감독은
압박
76
##권에
##화로
레이저
##장인
국토
진영
거야
제외하고
##국제
디지털
##국가
철저
##언을
인지
800
##PG
은행
대놓고
72
##겨진
능력치
정당
77
무게
때의
선배
##면서도
##보가
패시브
유키
응원
##중한
뒤로
제도
공모
초반에
MP
이내
##비의
wiki
##오프
떨어져
고대
가로
전주
뭔가
##재를
제로
연예
##세의
통일
의한
소리를
##목을
서비스를
##부에서
충전
운전
##ity
위로
##산시
사령
넘는
지옥
벗어나
51
즉시
떨어지는
감염
63
지명
##파이어
댓글
폭탄
##90
대폭
그게
KB
뿐이다
##해주는
보이고
##고가
관람
용병
전술
##제한
때부터
걸로
##조합
입학
##중앙
해주
시작으로
##데미
싶다
##키를
2006년
남북
바뀌었다
거대
애매
##이었지만
##분기
##se
갖추
##류가
##라며
이들이
컴퓨터
의미가
사건이
##점에
메가
구현
알려진
내에
생겨
##님이
스마트폰
##토가
김영
흔들
간다
타이밍
##수에
호텔
373
쉬운
##EN
스킨
스탠
뉴욕
부른다
강남
의사
##ind
사이에서
경유
##ng
설득
결과를
작년
시각
처치
##끼리
##주인
왼쪽
다음과
걸쳐
국가대표
이승
등등
##GM
모집
##으로도
입은
충돌
알렉
##사키
##서울
가까이
3차
상대의
##오의
스펙
##연을
미친
##았지만
임명
문을
##우의
혼란
동맹
##물로
지니
##식의
##권에서
경북
NC
맡은
회원
대공
테러
##우를
##가고
뒤집
말해
3번
재능
창작
거절
정체
무대
없게
##관의
고급
바란다
주말
머리를
##ew
##향이
아무래도
편성
고유
공항
영구
긍정
점검
삼국
지자
##ust
88
수준으로
4년
일어난
##22
중에서도
PS
##군에
무기를
본편
콘서
##중학교
그럴
##라리
##og
##다이
근데
뉴스
선호
외에
소방
멸망
##금이
##까지도
##발을
부진
부족한
나쁜
사람들
##심이
67
에서는
판타
추가된
##하게도
게임의
사장
##긴다
##사무
계획을
##ex
캠페
화려
##판이
중소기업
떠올
##하의
상대를
모른다
##a3
##교육청
창원
받게
31일
##시리즈
대통령이
단지
##트에
맞이
랜덤
##자들에게
정부는
대장
마지막으로
하나를
##어져
상태가
하나가
내내
전년
페르
포항
##웨이
이후에는
필드
훌륭
대다
68
매일
임대
스페인
2배
위에서
표준
보건
이들의
아동
##비용
역전
시티
사실은
기절
##OL
##소에
그만큼
향상
검사
서포
##트워
##거리가
밀려
실력
말도
스탯
앞으로도
스페셜
대로
특별한
당황
계산
##와서
영상을
커버
나의
##프의
유래
##드라
공화
넘어가
##스카
케이스
않기
##회사
##해져
대미지
조준
들어서
실행
해설
110
감독이
##오고
##게도
이것이
재정
##오가
##치에
지하철
국방
##뿐만
습격
어쩔
자기가
##스트로
##천시
법률
아야
보장
승강
4차
2005년
만들기
##실이
사건을
상황이다
없으며
분양
2011
신인
73
##초등학교
##ore
180
처음부터
데스
74
sh
온갖
##되자
수용
살짝
검색
복지
##말을
##리나
그렇다고
얻은
극장판
수립
최저
##즈키
SNS
죽이
##기인
##방이
##있던
아티
패러디
플라
부문
트랙
##차는
##관에서
활약을
##가에
깊은
##타이
노출
수영
엄마
그리스
교환
##one
것이라
하수
##a3c
##선에서
들어간
373a3c
블록
마주
부품
##전투
소화
할인
단일
확산
250
##하고자
공주
로켓
개막
못할
육군
수리
##공간
##VP
##시스템
배신
##되는데
원내
본격적으로
화이트
베이스
##대상
줄어
##종합
##프라
원래는
방패
공을
하위
##모델
나카
##LC
의견이
Su
##식은
무력
##면을
##지마
게임이
이상한
주장했다
들어가는
언니
##내며
생각하는
처음에는
안습
버티
##번호
##금융
해양
##하기에
두번째
점수
자이
갤럭
예능
심각한
##하러
왕국
##시한
##나미
비상
경상
84
찾는
공격력이
##보스
버튼
##당을
주차
외부
열리는
##되기도
##파크
구단
##민이
##하긴
##테인
##인지라
붙잡
생물
근로
##방어
##기만
처벌
##선은
동원
입장을
##리다
하던
##HE
화살
보여준
놀라
혜택
흔히
포르
약한
##타의
##것이
있으므로
한국어
청와대
그녀를
##먹는
##페이
않았고
인증
오른쪽
동일한
is
##프리
##기지
##실에
확률이
##성으로
마이크
않으며
4회
확인할
##선으로
둘이
98
시점에서
5회
아오
##ord
##악한
모두가
사진을
초월
##차피
me
##할때
##표를
##터의
모으
##타입
for
##ite
뽑아
비록
##건을
##ES
##향을
우리는
주어
##23
열어
분위기
말한
##해지는
##ob
메이저
wh
무엇보다
붕괴
등과
건너
일종의
예방
요즘
##보험
기능을
얼음
##았다고
파이터
장점
무서
세월
모션
##연이
그다
세이
##야구
##ee
옆에
##었기
##족의
##카오
사람들을
30분
없었던
선수가
작전
##토의
기반으로
때려
의무
아름다운
중간에
##시간이
자리에
눈치
##마루
2010
풀어
##았는데
성인
##일은
조각
아이템을
부분은
쓰지
전화
집행
##RA
엑스
사거리
레인
수도권
##IS
마법사
생각을
78
on
얼굴을
메시
트레
살고
은근
주제로
##end
전력
69
존재하는
##였다고
an
데미지가
집단
전원
크루
테크
오프닝
##길을
않아서
##형의
많고
외모
도움
##21
우승을
페이
##스트를
2004년
납치
의도
추락
예측
그것도
무역
정글
##만은
바르
다행히
어차피
##OU
덕에
반응을
열고
당시에는
취약
라이벌
체계
##스팅
##명에
드랍
##급의
아무런
축제
##트랙
##판에
플레이어가
##적의
단점
양산
클로
##거래
취임
발음
걸려
##관련
카드가
190
글을
##전에서는
경계
불꽃
##시험
##율은
내구
이래
##진흥
##부대
규정
##치와
사람도
쓴다
##오를
##MA
넣어
돌격
아우
##인들의
##서비스
##메이
하기도
인간의
물러
트위터
it
방송을
##들이다
아사
콤보
하다가
##age
##전문
3위
1대
와중에
수집
격투
합쳐
정도는
배출
낮아
이중
86
사정
계속해서
있어야
입주
##투자
뛰어나
##기타
정말로
공정
충남
##토를
##노동
되돌
내놓
추정된다
##브리
방법을
##eg
노래를
##스턴
##개가
부동산
##주면
마녀
##자원
비중이
##머리
황제
##ood
CV
셈이다
그것을
만든다
공격이
와서
##스탄
##시안
##직을
##운다
##시고
CC
##였으며
화재
다수
아라
울트라
미디어
##오카
정령
나눠
스트라이
폐지
곳에서
갑옷
맡았다
카운터
##리티컬
충북
한마
오리
협의
##유키
##기준
3대
김태
박살
##널티
##스트라
곳이
경기가
자치
나오는데
행동을
피아
조용
##했다가
보자
마츠
증명
##홈런
##nt
합격
일부러
##았을
##하면서도
##역에서
##ix
##크는
의식
목표로
연애
프로그램을
파트너
##ire
최악의
들어오
보험
위키
거듭
순식
저녁
박근
덧붙였다
안되는
96
측은
최선을
등판
##학을
관련해
##곳에
소멸
방향으로
당한
반도
지역에
##등장
##ure
의뢰
아닐
##즈는
인수
##99
공사
##하지는
##권은
하나인
그렇지
##하겠다는
5G
행적
##률을
통해서
극복
고교
빨간
규제
혐의로
CP
자격
개통
##병을
인류
치고
##가락
시야
암흑
##일의
바른
정비
MAX
올리
적도
학생들이
러브
##기본
컨텐츠
괴물
##장애
##ark
리버
##ect
8강
아무도
##수사
테이
##받았다
정확한
무난
##리언
동네
대처
호평
펼치기
##ock
192
때문인지
한계
##워드
##연의
한때
##훈련
비하면
순식간에
두려
오로
##되었는데
나갈
##기록
정확히
성남
없애
AT
3루
출처
##생을
되자
##ID
##터테인
주인공이
##00만
그다지
몰래
공부
쓰러뜨
사용하면
##라기
가을
들이
해체
Pro
주관
어째
##lay
창출
##ide
##일보
매니
##실점
위기에
##소의
자유한국당
모습은
##립을
##데이
패치로
##식품
최상
기울
스튜
##책을
견제
##과정
##동의
않도록
이것은
##음악
여유
복잡
##디언
공무원
##내기
빠진
목숨을
보너스
쪽으로
##인에게
활발
83
3D
들여
뒤를
생겼다
주거
부분을
장르
맡고
통상
이정
##대사
##판에서는
2기
도내
성과
개의
신의
##ear
폭풍
먹을
되찾
##하시
조심
역으로
##케팅
에스
모여
데리고
97
추적
형제
##미래
아직도
##술사
함정
신속
그들의
일상
싸우는
AR
후쿠
관광객
들은
돌진
흐름
살펴
##시코
했을
##화와
##안의
##단으로
복수
해당하는
##단과
내는
##보단
클리
##장한
어깨
캐릭터를
크리티컬
있긴
##함에
눈이
개방
##군과
크리
다니는
##OM
CD
##av
##버리고
##색이
법무
##데스
상호
정착
노트
일본어
##ath
파견
대륙
안드로
안에서
작용
##거리는
반란
접기
누적
대법
맞은
관계를
##미니
감정
분위기를
미야
이름의
마음에
##으려
난이도가
##카를
##형으로
떡밥
방법이
실제로는
추가바람
진정한
후에는
목적으로
그녀는
격파
과정을
여왕
끌고
어쨌
이달
NPC
갖춘
AC
카나
세력
##상황
대학교
대만
##제작
##분의
##2018년
##OP
##인에
편이
MC
사랑을
붙여
푸른
아니냐는
##주기
최우
살려
##함으로써
##pt
보이며
##중인
be
채로
##까지만
8회
아무것도
그녀가
메탈
1천
##받을
딜러
아메
생각이
##산물
여동생
막을
수수
크레
##러운
브라질
##시민
9회
귀족
##주지
##짜리
여러가지
캐릭터의
융합
나를
네가
##링을
##화는
추가되었다
나루
##ere
드디어
선고
##하겠다고
팀은
##제품
소득
2부
##AD
그런지
##소득
막기
가사
##버리
발생한
프로토
된다는
학부
판결
##동에
김정
##OT
회전
메뉴
현재의
##ess
##이었는데
닥터
##스키
쓰면
전망이다
몸에
사운드
갤럭시
##우승
심사
오빠
조절
달아
##식에
얻는
익숙
##해가
##OC
##보호
전체적으로
이른
흘러
##루를
6회
스프
파이어
바이오
##니가
##테이
##사람
##국을
효과는
랭크
##린이
2002년
##oy
씨는
보여주었다
##28
##까지의
김종
생각한다
##월드
댄스
##하였으며
미술
고양이
소프트
##구청
##부장
말할
토모
고위
미세먼지
충청
자체를
주지
##판의
장수
re
쓰이는
##씨의
밴드
본선
패션
해적
자리에서
79
자율
##츠키
##소리
위기
곧바로
##레나
##인인
김민
##히로
이나
##반도
##운영
##마스터
신성
수학
여겨
2층
주먹
환영
##없다
영원
##ass
아빠
대표팀
대화를
##축구
US
##판은
국무
##형은
계승
##ey
파이널
도달
2003년
##조리
넓은
##로로
##르지
못하게
사람들의
그러면서
몸이
규모의
높이
##소한
공개된
아쉽
##렸을
##억원을
자녀
쓰레기
새롭게
4강
##경이
생태
조례
촉구
가드
##특별시
##들에게는
##역에
카르
##면에
고향
##스에게
몰려
괜찮은
중학교
Gr
고백
긴급
첫번째
가문
##RE
##석은
타워
##작을
평가가
##베이
박근혜
조금씩
작동
알파
1로
입장에서는
##체로
제가
감독의
언어
새벽
##소는
##26
##치며
크고
천안
Al
##기에는
##명과
성능이
87
이쪽은
##조는
성능을
박정
지적했다
커피
##자키
##서에
##편의
##ale
##2019년
운영하는
##베르
걸린
메카
FA
GS
레전드
올린
옮겨
상향
Cl
선수들이
비례
쪽이
때가
##클럽
간의
감시
수업
않아도
이후에도
넘겨
그럼에도
##너지
다리
Wh
##용이
해방
극단
정기
Tr
기록을
올랐다
괴롭
곳으로
##야의
스카이
귀여
가면라이더
##던가
목소리가
##력도
소형
##한의
내세
뜻을
옛날
여러모로
##되었던
정류
##세로
방안을
계약을
돌아온
이성
선생님
##관에
##PM
노인
A4
##실한
##법이
어쩌
##것을
##아를
##마저도
원칙
방침이다
##하려면
언제나
실현
마지막에
시키
##ok
이지
추억
체포
개혁
동의
꺼내
혼자서
길이
유령
##색을
마음이
국정
등장했다
7회
##망을
##ick
습득
루트
##원들이
죽는
말이다
판타지
##프는
것이었다
##순위
##등학생
##ake
전직
이슈
어디까지
##함과
기술이
Te
##27
구해
즐길
맞춤
##마이
이득
쉽지
제이
늘어난
여론
출현
정도가
93
보여주고
헤드
##환이
애플
##웨어
##티드
##차례
공산
해소
보낸
화성
##추가
##쟁이
당시의
꿈을
생겼
##퍼스
##해서는
맞지
##행정
##차량
점차
않았지만
일제
##자동차
##이익
반격
하더라도
기어
음반
유희
##포인트
내고
베르
자신과
불가능하다
자이언
SR
##했습니다
주변에
##아야
##등을
##지능
트로
판정
61
업계
이후로는
하거나
##가스
##국은
##심으로
김동
성과를
가고
크로스
홀로
##시절
##소에서
##공식
보안
제4
죽여
음성
기원
담은
거라고
이스
##우리
지능
##ance
발표했다
보완
제법
보인
헤어
거기다
전형
전까지
흥행
추격
캐나다
스폰
1억
이어지는
후지
심리
더빙
비슷하게
파란
돌아오
무효
이슬
타케
콜라
##하라고
##ound
라이더
##2017년
번호
파일럿
##금은
기습
말은
3000
##고의
근육
입수
대체로
교수는
똑같은
목격
우수한
##일드
참여한
전라
##라이언
형사
유저들이
이웃
학원
똑같이
##uc
용의
던져
밝히
수십
그랬
연사
계기로
금액
이들을
이시
답변
BGM
병원
관계가
적어도
##레이터
##서로
##더라
민족
##amu
##2018
##작의
##더스
전공
가야
16강
##ime
2만
어그
사용해
##당하고
##ud
##노선
##친구
자가
이르
1명
##자도
예외
가속
##OW
브리
##안은
아케
팬들이
생각하고
체력을
아머
팬들의
1층
할머니
진행된다
##병이
본인도
##팀이
94
있었다고
원내대표
##파를
KIA
De
##ov
출생
성공했다
한데
##그래
##해졌
연상
하니
득표
##양이
아울
협박
##세는
유명하다
너무나
##영이
수술
복합
주최
##장비
마도
130
그것이
##BA
했다는
않았던
2009
포인
고전
##률은
##ice
##회담
##종을
학살
주기
대출
수록곡
공감
세워
최다
가치
나아
가능성도
프린
주연
개입
드물
이거
나섰다
##35
어드
시스템을
경고
##로봇
코드
시상
집어
어지
위치를
5000
다섯
89
##재로
마크
실력을
이끌어
때에는
##계약
##방향
맞게
진지
출범
##일랜드
심한
상담
##ww
승부
그래픽
##일로
소송
공기
##당히
저주
CJ
##명한
정지
##할수
대통령의
잡는
1기
##소개
##스톤
##대한민
구출
##코스트
아니었다
가동
의미를
의존
강하게
중계
Com
전날
##역사
##지는데
가깝다
##메이크
팬들은
거리가
5초
부서
없으면
웹툰
출마
갈아
##일반
스파이
##사이트
##어리
최후의
형태의
밝힌
사이가
건립
들어간다
무언
191
##old
##해보
계급
노멀
단어
기억을
##하기는
스포
카메라
이제는
##세에
클래스
프리미엄
당신
동시
스킬이
구성된
입을
##줘야
골든
들을
있는지
이상을
소리가
저렴
##지사
가격이
마왕
양성
##공업
김현
##디로
성적을
##했는지
목소리
단순한
##64
##파이
##의가
##종이
사토
FI
희귀
방지
지나치게
에게
권총
##문학
드러나
##빌리티
##시청
##리아의
##처리
##코는
이영
느낄
대변
과연
MVP
##냐며
##카는
정치적
남녀
맞다
대부분이
와이
GT
붙은
일도
참전
요새
가능하며
##테크
중국의
##타운
##qu
네트워
압도적인
서서
예선
보며
자매
##환을
##둥이
쿠로
일시
폭주
##루의
권한
700
시범
##했었다
##현이
사유
2008
작품을
##실로
중요하다
이상으로
가리
어둠의
공격에
해상
##으론
##버스터
오랫
접촉
커맨
어떠
밖으로
파라
가볍
0으로
쓰인다
다이아
박사
이후의
위험한
##our
베스트
느낌이
달린
정도다
일반적으로
##모드
##기기
저장
기능이
그에게
전투를
출입
수준이다
어려워
##물에
처럼
현상
올렸다
##번에
대상이
행위
장애인
플레이를
www
청주
##ax
##산이
##배를
세상을
개설
따뜻
김재
##33
##회장
인형
##당하는
플레
##협력
어떻게든
잡을
통제
초청
생활을
##하였으나
만날
##화한
갈수록
namu
대립
##된다는
곡을
돌입
##터미널
세계의
3인
입력
##재가
지역에서
없으니
##가족
곳은
##라이트
미츠
##당에
##았으나
THE
타이거
대미지를
종점
실버
##자고
순수
버려
어른
적응
가졌다
분위기가
인터뷰에서
나뉘
수송
같아
##심한
##전과
##다보니
##재단
지금의
2대
##지않
##인들은
커플
수소
목소리를
2001년
받아들이
지식
지금도
##고로
마케팅
아리
후원
##아리
까다
하나는
with
기회가
아버지가
##쳐서
비슷하다
없는데
본다
##증이
모리
중에는
##활동을
않는다는
마인
##29
궁금
말로
끝나고
##정상
캐릭터로
기회
##체에
변형
An
##봐야
##다니는
정확히는
##관으로
##2019
쉽다
폐기
3학년
교사
가이
PD
잃은
##미와
것이고
보일
컬러
##니의
콘서트
조기
당일
잠수
접수
##미나
나아가
##오리
것인지
베어
##전차
##티아
피해가
페이스북
일방
되지만
점이다
사용자
리메이크
##전거
현재까지
IT
다룬
##리얼
연락
##소로
신용
전부터
무적
##대장
이용할
DLC
##역의
##제도
##있고
##ber
국민의
##직한
반응이
레오
찾아가
경비
탱커
##이긴
##였다는
##벤처
##장갑
강원도
##구와
작사
호주
##ian
##색으로
접속
평생
##스티벌
##되었으나
서부
상상
##림을
저그
스티
요괴
만남
중화
교류
##체인
##198
전해
##2016년
블로그
공장
시기에
##건의
##으려고
SC
##피해
대한민국의
##인간
##여자
보물
없었고
포탑
갤러리
##법에
##진과
당부
##구치
자극
연간
명확
##이라며
##집을
##보드
보관
140
160
##LL
유행
기아
전후
##미네
들었다
##자마자
##って
블러
##사업을
가스
들어갈
장식
##전대
이번에
##이게
적합
이론
원인
정면
마리오
이외에도
71
차라리
##막을
있기에
나타난
##라노
AS
대략
방안
선사
둘째
도중에
시켜
재활
뮤지컬
전투에서
##ace
오랫동안
세대
잠재
대원
도발
my
미스
교육을
SM
나와서
화력
없던
착각
그와
##데다
##ile
서울특별시
가짜
지니고
시장은
마이클
##지인
##마는
절망
방사
##이동
경력
지역을
출판
##에다
##되지만
세계를
전함
##디가
작가의
##고기
능력은
쓰기
LI
테스트
원을
생각보다
제공하는
한국당
##았다는
##만큼은
조국
오해
##US
##법은
믿고
##재생
##대책
성격이
하야
했으며
별다른
위주로
동남
제국의
끌려
##노우
Un
##버려
고생
상업
자신들의
Se
변경되었다
Ex
기부
포스트
##석의
##령을
많아서
##연맹
##과도
힘으로
스피드
##작이
근처에
중에서는
진행한다
마법을
잡은
##비로
##하에
##공학
비디오
##경영
##공개
발언을
지어
최강의
##범죄
아바
이상이
AK
투어
##체험
보라
초등학교
외에는
10개
나가는
##독교
찾기
게이지
아울러
6개
다수의
출장
날개
물을
한자
이것을
##Lv
한동안
##브라
##건이
말하면
독특
결코
사건의
##sh
##버트
##톨릭
튀어나
하필
##시키기
##당해
보유하고
무릎
노예
최신
삶을
질문
##렸던
친환경
창조
스태
##영어
de
한국에서
어쨌든
개별
부상을
적절한
##루션
2학년
DJ
지원하는
태어
종목
안드로이드
독자
호흡
필리
아닌가
##야가
네덜
행성
완벽한
설정이
##겠습니다
이용하여
옷을
작중에서
훌륭한
칭찬
다들
버리고
##메가
##님의
보이지만
실시간
##견을
##년간
특화
써서
6개월
선두
싸울
강철
##비트
차지했다
4위
봉사
드림
발생하는
##링크
정신을
2의
초창
학습
##무장
누구나
박스
재현
##적은
##노가
##조선
봐야
널리
코스트
구멍
들려
##기능
이길
김해
대사를
랭킹
##용을
용인
이용하는
##법인
##비와
데다
2007
멈추
##EM
로그
키워
피격
장면을
카타
카카오
방탄
치유
프라
회수
적대
축하
감안하면
이끄
제정
디버
치명타
##어버린
다루는
자동으로
인공지능
##설명
무작
문학
모니
##설을
##공단
슬롯
##주얼
수련
오스
빠르
총을
담긴
합성
20대
4대
아니라고
##own
##상공
어디까지나
##상과
나름대로
쫓아
##사실
행사를
아티스트
동방
고성
포함해
##로서의
헌터
자랑한다
채택
부인
소식을
텔레
OST
승점
##나카
##느라
마이너
세부
##터테인먼트
식품
인권
##보로
태풍
열린다
사용하지
연극
되어서
노력을
할아버
한다면
Me
코어
머물
##슬러
맞서
그로
작가가
시달
많은데
##편에서
##곳에서
발표한
참석한
##국에
사용하고
공군
활용한
똑같
막장
My
##묘한
관계로
간부
##EX
지자체
82
강제로
3연
동기
달고
있어도
##민은
기록한
채워
태어난
결과가
사법
##고속도로
마구
1999년
방법은
안양
아니라는
좌우
##산의
미안
##당했다
2006
그렇다
외계
##투를
신분
보지
도는
떠오
전방
##스포츠
##들과는
##졌지만
##영의
예상된다
기자회
그건
얻고
1학년
죽음의
##든가
##포르
##기에서
존재하지
난다
##aw
작품의
의원이
##량으로
깨닫
관중
만났
총선
없었
유니폼
이익
마약
##계열
조치
팬덤
어두
##하는게
간혹
등도
다를
이끄는
추구
##cho
매력
##글랜드
주식
##공의
점도
코미
발달
HD
스웨
##비에
전성
아가
##가면
##여객
##io
제어
터뜨
##아는
우리의
##박스
##ann
기분
##관과
사라진
환승
밝혀졌다
##더욱
수능
##팅을
후배
##당한다
소닉
하얀
본격적인
스톰
휴대
##곡을
구글
적극적인
폐쇄
##양을
치열
심의
감옥
불가능한
경찰은
단축
##동으로
농촌
##있게
무기로
##가며
스튜디오
규칙
##UN
강하다
##왕이
한참
라운드
호소
##렬한
클래식
남부
집에서
##혁신
##GA
사이의
##파의
티켓
자신도
죽음을
전에는
아쉬운
동해
주전
불을
소수
급격
##이기에
##씨를
어릴
2인
하트
페이지
kt
불린다
##있어
##인지는
영광
캐스팅
프로필
이벤트를
내지
일으키
화학
경기는
일명
동부
역을
해병
81
##45
##OD
##달라
잡기
##ome
발행
2명
이리
사람들에게
무관
알리
##이트를
피해자
##문은
##orm
비트
상반기
##심의
노조
내리
집을
올리는
##파가
##화점
매직
4번
높고
##이었다고
챌린
트윈
##린의
##되었지만
##필드
활용해
유로
나도
의지
##의원
여신
##포가
##ies
서양
##만원을
신입
책임을
##차에
전쟁을
위하여
유형
반박
##리우
##해준다
이유를
방법으로
대기업
느낀
##드래
##통을
특이한
더더욱
##제와
있다가
열쇠
멀쩡
내의
모른
반도체
노란
##로나
향한
넣고
은근히
##받는다
좋을
김경
##감한
##들과의
##해지고
조지
##정과
다음날
찍어
입단
태그
화려한
1998년
##졌다고
몬스터를
##조차도
속도를
마시
테란
비싸
하반기
김대
이수
##36
##노스
##배우
일자
##위원장
남겨
대항
##국민
이명
##청은
동반
bo
소총
드는
원본
##여행
승격
##직업
연관
런던
가시
##검을
##상한
인간이
##만으로도
##orld
##타와
##겠지
대충
유발
IS
##유닛
##ost
절대로
피를
리얼
차원
같지만
캠페인
미나
##현의
의미로
계기가
##영은
##생명
대해서도
시그
챙겨
##에겐
죽인
실력이
세이버
제5
##버그
눈물을
##사거리
쿠키
##LE
핸드
##성장
회장은
##캐릭터
10시
떨어진다
과거의
당해
퍼포
경향이
기본적인
##ory
아이를
지속적인
대거
도서관
보게
퀄리티
탄약
##니와
방에
매니저
이민
이번에는
이끌고
스코어
마침내
##하라는
##위키
##트맨
이치
현역
##연구원
챔피언스
##실의
명을
나쁘지
##크라
근본
##동물
찾을
녹색
적혀
크기
영문
##트릭
생일
##주자
101
방송에서
철거
들어온
오염
##도르
제공한다
있었으며
이미지를
일이다
히데
##AP
잃고
전진
운영하고
##당할
손으로
##ond
미래를
우연히
1부
관측
1조
점수를
언급한
자금
##거리를
장교
##2015년
##아아
##츠의
코리아
내장
일찍
합니다
부각
공연을
##II
이은
싸움을
잘못된
##75
유력
일으킨
1997년
##판에서
죄다
이글
##arg
나나
##공이
##석에
지시
##TE
##우기
##되어서
기록하며
##결과
##ial
알겠지만
시작된
##득점
Pr
레벨이
IC
보유한
스트리
##자책
날짜
협약
코치
실천
LC
##마에
##발매
편곡
##노의
경험치
잡혀
모래
일본에서
라인업
오스트
김진
##IP
SKT
##으러
배달
##iss
진행된
##구조
선제
깔끔
녹음
9시
강요
900
한국인
돈이
##MP
이종
제임
##바라
##TS
결과는
##해질
가라
##상품
무덤
제품을
치는
가치를
인원
된다고
키리
강릉
책을
모모
상급
SD
자본
##비디오
대표적으로
휘두
걸고
##로와
공격하는
Love
밸런스
어떠한
Dr
카드의
92
허나
평이
스틸
비싼
갔다
##ash
##사령
##됩니다
브루
금속
공공기관
빛을
경기에
기상
##하더라도
요구하는
앉아
볼넷
특집
질문에
자전거
준우승
시즈
결합
부른
Le
##하기가
출신의
신기
또다시
이전의
별개로
K리그
이슬람
정황
##드레
상태다
작업을
안티
##직원
방출
CF
미스터
바보
써먹
##이사
죽일
연령
대우
##네가
##방에서
오지
힘들어
이주
##토는
게임에서
윌리
매주
He
어마
##누리
필살기
##국어
받으며
이자
퍼포먼
##코와
조사를
##중이다
좋고
중독
사례가
가능성을
내보
선임
##가시
##리케
사후
##격으로
찍은
##네요
##다의
남긴
##드라마
##34
좋게
주간
##팀의
기재
가격은
디아
##구리
##하가
쇼핑
택시
충격을
기독교
이겨
색깔
연료
가상
##다리
야생
##파로
##장전
##봉사
리듬
Br
고령
증언
사람들도
모양이다
전체를
##급으로
자식
자세히
아끼
2002
##닉스
짓을
보여주며
뒤에서
자연스럽게
って
죽어
집계
손님
##그라
##이든
빠져나
증가한다
어지간
##했다면
터치
징역
거론
것일
레이드
만나게
##되었을
서구
##렸다고
이즈
전멸
지내
말하며
전철
법정
프리큐
##한글
숨겨진
##치면
라이프
오사카
##협의회
버프를
농구
3명
무인
재난
정책을
나이가
##티나
자리잡
동영상
##전기
대사가
통계
##물관
성폭
빛의
##즈와
아트
피해량
메타
##협의
##백을
프라이
서울시
네오
##노트
구미
별명
##ream
바깥
로스
SU
재사용
되었다고
벌어진
##사이드
캡틴
빨라
##졌을
카와
모르고
혐의
##로워
##주며
##미터
드론
문의
줄어든
##물은
사양
##질의
거리를
군단
매달
##환으로
역사를
정찰
안된다
스미
##희가
유저가
tv
##였기
##그리
KBO
Or
응답
##진에
##코를
히로인
##ave
편입
##라이브
것이며
패키
첫차
얼굴이
##욕을
##교를
##공화
##az
눌러
방치
건조
##2017
##크와
##신으로
소요
신한
미카
드라
연방
##유를
##부르크
##ish
특성을
##링이
2천
경주
플로
이혼
##탄이
크라
넘게
기소
단단
경우에
사우
그라
심하게
간담
##즈마
치매
##37
##ike
내야
무방
일대
##서도
투명
마리아
##레어
평택
승객
##분야
골프
잉글랜드
장군
체크
실망
메르
한국에
선도
멕시코
##포로
액티브
모조리
갈라
니시
효과로
있었을
물론이고
##타카
태어나
높게
카라
##고에
배우는
##랑이
정수
천재
가톨릭
담아
폭행
##이면서
나오기
인재
포스
김상
##pe
수석
##네임
구사
어택
진행했다
##피를
##쿠라
진보
##왔던
코믹스
보존
정체를
##연도
부수
라이온
##아시아
##돌이
##유럽
현황
##투스
있었기
바꾼
##현은
##다란
##츠가
##검사
선박
와타
성별
실종
Sc
##개혁
김포
메달
드립
##사기
데다가
유효
명령을
##토와
유기
보너
시원
매치
인스타
하겠다
간접
경험이
정복
##졌던
시절의
그러자
아쿠
신문
과도
시가
가해
마라
바른미래
1군
강의
학부모
경험을
ch
##생이
##쪽의
환상
이외의
전형적인
보다는
챔피언십
2000년대
##그러
이루어진
그림자
##커스
공작
##되었다고
결성
부딪
파리
한타
##주일
##커가
105
##해온
열차
WW
보여줬다
##계로
##우와
최근에는
##창을
한정으로
지형
노부
스승
마술
한명
##워치
귀찮
무시하고
부적
그랜드
대선
있었다는
6시
1시간
어려움을
스프링
않았을
들어갔
##속도가
헤이
안정적인
식의
##타자
수급
실무
이식
인력
##축제
그렇지만
늑대
##때는
아크
##았으며
적지
그들이
대리
##플러
3만
##슈타
아버지의
##지수
##드립
단속
##란히
##것으로
##거야
##니를
##ION
차기
##올림픽
후속작
아이콘
여부
실내
재개
##IG
풍부
약간의
##역은
보석
몰라도
##색의
돼지
과거에
##진으로
##46
##디움
1995년
죽고
거짓말
드리
자는
유사한
올라온
##르를
고수
##호와
##pp
제약
##공격력
차를
개시
해피
분명히
##공동
하나도
##졌으며
호남
시내버스
##국에서
맞춤형
에드
의문
곳을
##실은
동굴
탈퇴
북한의
캐릭터는
##전한
아파
사랑하는
게이트
##류의
##ade
##도서관
역사상
##질로
##othic
영향으로
시간에
변화를
##코드
떨어뜨
오직
사로
위장
아나운
2연
1996년
##SP
##우며
##ach
통산
age
요코
20년
클라우
카미
대개
스타트
임금
##가격
크리스마스
취득
##oll
##경은
한일
##나고
조건을
얻었다
합동
##셔널
부분에
엘프
1승
고스트
2005
##된다고
곳이다
10만
##강화
도주
적어
##통합
10분
your
KO
감정을
노후
##등록
##것은
##닌다
##들만
당초
##싱턴
폭격
일원
삶의
타자
사용이
##세스
##55
측정
진행하는
신이
의지를
##NG
아이스
유출
##100
Fl
편리
##계에서
##으로서의
문자
AD
##마와
병력
2004
검증
멋진
주인공의
완벽하게
기숙
##고한
용도로
세상
2로
아일랜드
훗날
이행
유닛을
##였을
한반도
##받지
해주는
폭력
집안
##레인저
태평
당하는
세계에서
##스토리
이하의
결과적으로
##ET
차원에서
페널티
##생산
기대를
##라에
가볍게
죽는다
없다면
##ib
##당에서
##마크
거다
##졌다는
토끼
##대구
##ower
약점
행복한
무렵
##프로그램
마다
화를
나면
도구
레이더
협상
##버전
##학원
비교해
버렸다
장비를
##어와
##게이
1루
임무를
부드
작품이
프로듀서
사립
125
초록
##ae
군인
##경의
고작
고구
김기
욕을
##ft
피부
재밌
인물이
맡아
말아
제갈
이미지가
플레이오프
위치에
말자
스턴
##으로만
##우지
어르
1분
버린다
7시
##보이
##츠를
순으로
가치가
이닝
캐논
그들은
기병
##선과
연금
저는
출연한
커리어
##디를
board
##38
그들을
냄새
되었으며
##man
1라운드
##졌는데
공수
all
##끄러
털어
네임
##트에서
시에
##발의
현장에서
어째서
부상으로
##경기에서
눈물
아베
##경에
순서
아마도
장악
사이버
걸맞
네이
관할
##ky
##두는
움직이는
##감은
싸워
EP
저런
실질적인
메리
##커를
알바
1500
나오면
뛰어넘
간신
레이스
왕의
입장에서
2번째
##임금
둘은
성공한
아들이
##기념
나은
마력
한쪽
##팀은
##론의
상관없이
냈다
터키
조별
시즌을
들면
되었는데
군대
##웠던
멜로
##출신
##등의
##감도
5천
비교하면
전세계
170
##저스
숙련
삼국지
깜짝
##초간
사쿠라
##어마
##기자
수준이
연말
루시
재배
##령이
미군
피의
위기를
##능력을
##플렉
##패로
축소
##연한
##ug
##66
당사
맞으면
부모님
저작
게임에
스크린
날아가
비판을
##기까지
##화하는
##32
##내지
헤비
지역사회
발매된
상한
##주와
##랜스
합체
저질
챕터
##혁명
영구적으로
영화를
대상을
말하고
##케이
##나이트
특징이다
유나이
공직
뜬금
심판
도끼
몰랐
전의
상생
등장하지
##idth
있음을
##션을
고려해
##계는
불펜
업그레이
매각
외의
심장
배정
확실한
생략
SH
개발한
머리가
상자
슈팅
##버릴
밝혀진
하차
적당히
이용해서
##바닥
##아트
세이브
제주도
야스
더해
##tle
##rom
야간
위대한
혹시
행운
이것도
##벌레
##기획
차가
지원한다
무산
범위가
패스
주변의
공격할
별도의
피아노
소중한
스톤
아시안
타락
##브를
여부를
독특한
교과
##자유
끌어올
동양
창의
안심
##전설
##먹고
위치해
당연한
유입
후술
청소
수백
손가락
곤란
갖추고
##ph
달하는
중장
##대교
잡지
건의
마감
자폭
LA
단점이
구원
헌법
다음에
189
##라라
세븐
말하자면
방식을
페스티벌
몰락
##인도
무척
ID
##아와
재산
소지
##다나
##공연
긴장
홈런을
##포의
듣는
JT
1장
틀어
소드
안보
시작하는
##저히
총기
느낌을
가벼
패스트
사업에
전무
끊임
넘어서
스웨덴
화물
인하여
자료를
##지기도
호응
나타난다
사용하여
크리스탈
##ook
식물
무지
비율
기용
##Hz
음식을
유독
들어갔다
마스크
언젠
##루는
We
가려
##ah
##39
수류
수요가
##맨의
사용되는
단편
대대
부지
웃음
여의
##히지
네덜란드
##현대
스타크래프트
##절한
포르투
##주에
카드는
성능은
##목이
형식
##커의
가량
사냥꾼
자체의
이틀
퀘스트를
##IM
##CC
당했다
침공
넣은
윌리엄
##발이
소비자
느린
##시타
아이언
식민
Mar
신호
##부산
부천
91
유망
##지지만
카오스
##사우
샌드
신화
군은
##ous
혜택을
포트
##겠어
에너지를
제작한
멤버들이
가만
수면
##GB
후계
사로잡
훼손
##터는
진심으로
올해는
천사
##하하
내용의
##77
##조직
너의
왕자
콜라보
##몬드
망가
전체의
기업의
##니는
##례를
넘치는
bl
집으로
안나
소재로
영상이
##들로부터
시의
줄여
##보건
우려가
##달아
판정이
신선
은하
이른바
배려
##페이스
넥센
##종은
레어도
주었다
상영
기지
모를
플레이어의
뜻이다
##되던
1994년
김용
##에서부터
정도였다
팬들
떠난
사람에게
이어서
코코
##오와
면역
덤으로
나오며
##세한
가문의
##인한
##망이
사마
##범위
##시하는
내린
##하진
##수수
그러니까
투구
음악을
죽이고
사퇴
EN
묻자
오카
국적
##나가는
공격력을
이펙
카트
싫어하는
관내
다녀
병력을
주제
총알
##사관
미만
음원
##는가
##기구
##습을
ED
늦게
##지대
변화가
버린
이처럼
뜨거운
선출
화가
기운
어마어마
스페이스
대표하는
해명
악화
##회관
신경쓰
##투표
유의
##양함
새끼
일람
##조로
##고도
하나씩
방문해
체감
전반적으로
동작
넣는
되도록
북부
##고지
##스레
변호사
물려
준비를
##01
패턴이
대학생
생기는
사업은
##달라는
진행할
초반에는
소위
침묵
시위
배제
초과
늘려
안전한
##주년을
##화학
##하길
학생들의
##까진
mm
블레이
3개월
효율이
AM
##CG
나중
삼성전
##서와
공식적으로
공성
호위
##act
##름을
결론
##44
##권과
의견도
얘기를
왜곡
1호
##들인
##리지만
맛이
##본다
상처를
물건을
배포
받아들여
빌려
##31
몽골
##amp
남아있
by
##평화
##급을
블라
트라이
##나서
낫다
##조정
금방
##ink
사막
##차별
##편이
해안
사고를
진행하고
that
##매를
농담
최소한
##드래곤
그러다
초중
##스테이지
멘탈
이전에는
최우수
주사
##키와
낮다
중복
##들보다
##블린
##플러스
##포트
피할
##시피
사랑의
100만
방향을
5분
##번이
부착
장학
##농협
선전
##VD
조언
면에서
8개
클랜
흡혈
간신히
갑작
예약
패널
##코어
동화
##치면서
가구
##우주
##건강
자랑하는
공룡
진실을
##소와
구하기
##mer
생긴다
그러다가
도심
##년월
##감과
늘었다
대표가
않는다고
##여명이
많지
##리는데
요정
주제에
고마
시스템이
무대를
수를
he
민첩
##키퍼
예로
##하자마자
코멘
임신
드러났다
직전에
2003
##시에는
진행되는
알아서
적발
언더
개량
##VA
##됐고
XX
한번에
입증
두드
후에도
##행이
사카
트렌
전동
티어
##되게
올스타
먹어
드레
##리스의
##업이
다음으로
농협
자유롭게
점유
##비한
##장치
공원
리가
##테일
술을
차지하는
자아
단위
##탄의
커다란
현상이
부를
##듯한
뜻하는
##길이
양쪽
##위해
##환의
친구가
씨가
토대로
김정은
##디스
격려
뮤직비디오
기뻐
##으니까
##건축
##늦게
유재
주인공은
대회에서
지뢰
3점
간호
완화
브로
BL
상무
x11
##예산
잔뜩
지불
것인데
의상
팬들에게
가공
되기도
참여하는
기대된다
단행
오래된
말씀
발을
숨어
지연
환자
영양
##ext
체인
##야만
한국은
중구
##EO
War
It
##라엘
극대
휘말
##후반
영역
no
쪽은
##네시아
고문
##일리
##회복
지역은
사항은
CPU
장전
고기
아기
##렇게
합리
의미한다
골을
것만
함선
##나기
##절을
오류
마그
상술
노르
사망한
사고가
##클래
원인이
##팀을
##자면
길드
##맨이
##살을
거울
##동은
모은
##주었다
##투수
보내는
결제
무서운
검을
안녕
조리
당하고
##보병
취급을
빼고
비하
닌자
게스트
##결을
타겟
##디의
##림이
##되었다는
잇는
2세
##선수권
위력
##바나
##수원
##fr
##각이
주장하는
브레이크
##2014년
유닛이
감지
부과
나간
이집
부러
죽이는
##되거나
##버렸
##타수
진짜로
##영을
##성우
편이라
무기가
##계층
미치
연기를
히카
군산
지팡
상태를
전담
먹은
손흥
##ans
귀여운
일일
왕이
##ment
마코
##켰다
중립
중순
10대
니코
도박
##조에
##액을
##MS
못했고
##블로
한양
##점의
횟수
##발로
부작
2라운드
진주
발렌
UP
들어가면
훈련을
##리라
매체
기믹
칼날
이어진
당신의
기후
1990년
프레임
성공한다
##천군
아즈
서번
폴란드
발라
마키
안산
기점
##오버
가끔씩
##자료
##공장
시간은
마비
세운
##편에
##부문
11시
소음
##프와
##르며
출산
2군
거기서
##바의
교황
실드
##앨범
##ary
업무를
##출연
여담이지만
규모가
서울대
##금으로
##따라
##비전
오랜만에
품질
블레이드
##다를
선진
증폭
평타
##숙한
게임은
너희
노리
##모의
공허
##비드
올랐
공지
격추
끝날
ex
토트
##하를
스트레
3층
데몬
실수
##ows
비해서
LV
장면은
##이었으며
타는
트럭
##데이터
워싱턴
무기는
##동과
기술로
##った
프리큐어
##신문
For
##영웅
000원
하향
나눔
청구
##から
바퀴
미쿠
제임스
##ys
##ps
유저들은
정치인
##인데다
보면서
##chor
그것은
전체가
해운
연속으로
귀환
배터리
당부했다
알렉산
##언이
였다
##통이
관련한
오디션
##교의
인물로
목포
허가
준공
보여줬
188
거친
##식과
토너
공개되었다
앞장
5위
싱가
##미술
아카데미
천연
기존에
아저
존재를
##온이
##지다
##청이
전신
JR
구체적인
진정
배경으로
추종
선보였다
지목
아니라면
시작해
##are
##가리
당시에
올바
##로에
공격한다
##65
끔찍
인물이다
##irl
국토교통
춘천
##시스트
공무
정확하게
##놀이
느끼고
##막이
UN
난입
매장
사건으로
속도로
##자치단체
##속에
손해
스플
##구간
영국의
대미지가
올릴
후보로
운영을
유리한
1사
##ree
##정규
엘리트
높여
##교사
##atch
전체적인
많지만
처형
SE
둘의
##텔레
사라졌다
레알
모니터
생애
끝으로
최하
경찰에
복원
어딘
집착
태도를
아이디
박성
##기나
##문제
사자
##해왔다
##등이
수여
##학자
##타이어
어빌리티
트리플
즐기는
신앙
##행위
베네
양의
Be
문서를
조치를
##지나
오늘날
반사
지키는
세계관
고발
썼다
겪고
유지하고
##와도
활용할
타쿠
두려워
##도에서
사업이
구성되어
생각해보면
타격을
팀에
된다면
동일하다
마치고
첨단
##국으로
드라이버
##감에
노력하겠다
2001
7개
##머스
##가구
금메달
깨끗
요약
go
시청자
##able
Min
증가했다
##인데도
##집이
##AY
여러분
받기
##로만
사라진다
기사가
발생한다
인스타그램
시노
사태가
군주
기관총
확실하게
선수를
막내
돋보
적다
반해
##정치
##크스
대인
목을
NH
번개
후반에
서포터
복구
강경
##판으로
광주시
##이었기
데드
얻게
경찰이
위안
##단에서
##년월일
##차의
##편을
존재가
##미디어
##인치
##대기
##면에서
후손
Pl
답이
최적
좁은
숫자
가르쳐
##무가
설정을
중형
다하겠다
##릭스
##ank
속으로
빌드
가능성은
오라
아니며
미라
장점이
충족
CG
나타나는
JTBC
함께하는
당신이
##추어
역임
그날
날카
죽지
##밀한
##해주고
있을까
5번
##회와
자산
아틀
##봤다
데이터를
##소설
시절에
유전
##인들을
메모리
마드리
성립
따뜻한
개성
필리핀
##더러
언급이
지나가
##해양
대단한
사이드
각본
사건에
사용하기
주장을
##터널
이벤트가
119
달라고
드럼
선수는
어필
##NA
1턴
취향
종이
출시된
디젤
진행됐다
비율이
명백
이천
발전을
시드
관계자
곡명
걸리는
금강
법적
마친
선수들의
##연구소
오마
교장
익스
anchor
블러드
요금
유대
##영업
스텔
플레이어를
너는
350
##포스
##티스
않았다고
뒤늦게
질병
항의
곡이다
로얄
##났고
제2차
한방
나선다
up
##아키
고속도로
3천
평을
##미로
대치
##구에서
리뷰
##이거나
잠실
페이즈
호평을
길어
바닥에
스킬은
이젠
##권으로
모습도
##신과
동성
출연했다
토지
삽입
LIVE
##88
광명
##는데도
매번
아이가
결말
여수
일치
칼을
공간을
곡이
기업이
##순환
악역
코우
유인
공격으로
##장도
묘사가
대지
등이다
노려
##밀히
여야
##슬링
##중간
적중
유격
##ai
심지어는
취재
건지
##면이
##애니
##건으로
정통
##센트
중첩
보이스
언덕
##후의
시즌2
##뮤직
막는
별도로
건드
##DD
노리는
진단
초기에는
고소
요소가
신라
나츠
노무
때에
##러의
##소방
전화를
##시다
##ich
연도
일본이
문제점
혐오
##뉴얼
전설의
일로
파생
기대한다
##네의
##히트
경우엔
FIFA
시장에서
정원
히어로즈
토벌
관찰
와일드
##당과
##사도
업데이트로
열었다
유저들의
형식으로
들어올
어머니가
##목으로
##자연
##저럭
##ull
##액은
실점
충분한
##밀리
엄격
순천
만나는
시너
실수로
않다는
정차
##반을
학과
국가의
7년
##경우
##재는
죽기
사라져
조연
각자
소식이
부부
즐거
골키퍼
##결승
불만을
##럭저럭
드라이브
##민을
느꼈
##태를
버스터
면이
무사히
지휘관
스팀
유카
연봉
문제에
##ING
##열을
##anc
일부를
전략을
다리를
1의
도둑
상대는
진학
미국에서
##oon
남양
준수한
철저히
침입
호칭
추진하고
아메리카
일에
치킨
학교에
##sc
주민들의
직장
##47
싶다면
##가서
##했기에
마블
무료로
전쟁이
##러니
##필더
차량을
미국이
##줘서
삼성전자
##즈니
타마
기록이
개척
##가미
##재판
##타점
tr
출격
지키기
##전략
분당
아미
삼아
얻기
##생의
에그
##시즈
보냈
관련이
시절부터
##ase
에는
캐리
##체력
어디서
Ver
공격은
따온
혁명
8시
활성화를
토트넘
그럭저럭
##제국
구슬
대하여
찾은
임팩
##68
##키로
산하
침략
바꿀
##성한
가이드
나노
##UM
2주
파는
##둘러
선택할
음주
##대원
1993년
##now
트레이드
여행을
팬텀
인구가
미네
자라
##하마
##카페
부분에서
되었을
세계에
해킹
일으켜
아이들이
##약한
가질
##처를
커녕
해골
##하세요
매입
1992년
근거리
유이
##소총
어두운
소규모
엑스트라
##adow
못하면
건물을
눈길을
##수산
처음에
비가
##희의
대다수
##파워
##배가
분야에서
권력
생각할
##시간을
부정적인
원자
일본은
머리에
디스플레이
##이너
장치
##판매
팀원
##법으로
네트워크
##argin
##음에
누르면
박지
아랍
애매한
써야
중견
한층
##마츠
남겼다
##테르
닮은
##신체
##서야
느끼는
불렀다
숨겨
##훈이
##마일
분쟁
스토리를
유나이티드
유료
##오로
완결
시대에
하이퍼
기사를
##67
##함은
산림
완주
어르신
여지가
관여
불어
##스런
부스터
케이블
전역
상대에게
문명
완전한
##리거나
부가
##ms
##인들
##렸지만
드롭
사살
참여해
슬로
kr
##식에서
마산
미드필더
조회
노리고
대해선
3번째
악몽
벌레
주민들이
한국에서는
생명력
인디
##미사
바뀐다
휴식
류현
등장하며
않았다는
##렉션
##는지는
주둔
번에
##각성
margin
토큰
진실
이모
전투에
갖춰
2시
넣을
아르헨
we
5만
115
##대문
기기
인피
심심
경제적
##십시오
##ung
김준
어이
행위를
리버풀
상의
대성
토요일
##유가
포르투갈
##49
Go
배트맨
##왕을
올라오
이상은
##ens
두들
한두
##호텔
##놨다
##스피
제7
##레오
동참
##디에
작품은
업로드
인용
##위원회는
##번을
더군
3기
그러한
디지몬
깨달
RPG
공용
또다른
슬라이
##메라
아츠
아케이드
##싸움
대법원
내렸다
##품이
뒤집어
평양
##신도시
##AK
인사를
텍스트
##항을
무승
사야
rep
긍정적인
로맨
##참여
시체
마린
존중
##sp
발급
##설이
##oh
인간을
##기어
##번의
원딜
안타까
포스터
탱크
놓은
나라의
거점
플레이어는
간단한
##한이
민주주의
말라고
수치가
기가
맞춘
엔젤
프리미어
터져
작가는
주장이
가지게
무시무
##상담
김지
##엔딩
여성의
##희는
권장
학생들은
##준이
##매치
시청률
부임
뱀파이어
다스
특기
번도
선행
채팅
시대의
##물질
종사
기점으로
##베이터
##GE
##채널
세르
##후보
##바가
역량
차이를
##SS
##교회
우호
생길
##유치
분기
카드로
##러브
##전공
일행이
##러를
##스러워
MF
##실히
New
##민과
상대방
A씨는
이로써
현행
트롤
##테랑
일어나는
너프
파크
##중에서
모색
위력을
##곡으로
확충
##로이드
##코리아
루카
플래그
용서
전까지는
##학년도
캐스터
있겠지만
끊어
##국적
보충
Star
쌓아
저택
전투가
라이플
단기
##네스
피가
상기
##작은
##っと
거둔
김수
빛나는
저지른
거나
소상공
세상에
것보다
불렀
##부지
##형태
나오면서
##항목
지은
##월한
제재
트랜스
이루어져
치명적인
베이징
했었다
##저가
배를
배차
##란의
##중국
##거를
추석
부담이
구할
뿌리
해준다
히나
프렌
움직임
연구를
##중심
장거리
여학생
##추는
팔을
추세
여객
##니시
부담을
##머가
더군다나
##ical
##가게
선정된
##ork
않을까
##족이
##주인공
다짐
##워즈
제공하고
##요시
이스라엘
제외하고는
공화국
쌍둥이
4명
키스
##보며
영화의
카를
그랑
탄핵
땅을
2022년
무력화
하나만
못했던
##면적
읽어
##티즌
정식으로
클릭
회상
##열이
측에서
언데
시절에는
교회
장탄
막고
##반의
아래에
오키
되살
##함으로
1초
어뢰
면접
가만히
빼면
175
대부분은
떨어졌다
키타
어려움
균형
과제
들어오는
추정되는
##이었다는
버튼을
국내외
창단
360
세월호
감상
상황은
검찰은
##것이다
이병
##스트의
남기고
발생할
플레이가
정예
이어졌다
성장을
토마
##나간
##42
최소화
소장
스토리가
ON
2021년
도약
콜로
##리에게
테라
용사
##lect
속의
##체계
##치료
인접
김승
시계
그렇고
돌아와
##슨이
연인
##소나
데에
##곳을
전파
진압
스즈
##등한
독립운동
나고
1991년
##반이
마법소녀
차이는
압도적으로
거지
왠지
사용된다
어벤
##더의
주행
##잡이
웬만한
올리고
돌아가는
간간
버그가
아테
##진화
PR
무의
한창
비주얼
정화
##왔고
온다
##겠다며
초반부터
치료를
##침을
##난이도
##정당
있듯이
##째로
##께서
★★★
화제가
밑에
국내에서
무대에
찾고
시장에
클라
탄창
편이지만
카츠
##관계를
##기동
나지
목표를
장면에서
Team
코난
##위권
방식이
##No
사실이다
혐의를
막차
##주행
여기는
대량
##해준
종류의
괜히
며칠
탐험
설명을
지나지
일각
상점
##20년
의혹을
가요
시라
여성이
##증권
##되어있다
밝혔
##복이
명칭은
그간
al
버리는
터미널
##학습
특별히
##리스가
CH
방송된
조조
적용된다
그림을
○○
요원
Ad
유산
치러
##블리
##디는
예산을
좋아한다
이대
중심의
합병
##능력이
##표가
정도이다
즉사
지리
서서히
##사단
스킬로
몬스터가
소속사
정보가
키가
##버스터미널
무라
포함된
거미
공방
비전
일격
비판했다
##바야
##생활을
EU
##신교
108
##허가
나머지는
자신들이
동영
최종보스
더이상
솔직
##평균
##농업
계획이
##ife
보좌
##한을
좋다고
실적
##합을
그러면
##속이
##고리
응급
에릭
의정부
##에이
오타
##더가
시공
##정도로
조명
6년
OP
끊임없이
가기
##재료
##어버리는
##에너지
##카라
경우에도
##역과
시장을
같다고
돌연
지적이
마법의
##out
가지는
##기며
대단히
이었다
Con
타율
##ox
##있었다
배가
WWE
##있는데
반짝
인터뷰를
비핵
억지로
과목
공개했다
브레
포수
가디언
언급된
우울
유희왕
##뉴스
240
이긴
민원
듯이
새누리
##박을
조건이
일하는
잠입
시민들의
전승
출루
##igh
와중
이르는
##ier
##해줄
제한이
##너의
##평을
1세
IN
안으로
의사를
##행사
복잡한
용이
사제
거뒀
##갔고
##돼지
##타워
국산
후반부
가까워
찬성
캠프
유성
CS
만만
128
플라스
하나다
부르며
조롱
서로의
##way
연동
그러던
##곡이
##나요
차트
##렐라
신형
정상회담
##믹스
VR
위원장
##석에서
바른미래당
명중률
##업계
En
사용했다
일방적으로
##전용
결정적인
악의
잘라
##군으로
사령관
BS
DM
##폰을
##됐으며
맞을
신도
220
##루와
후퇴
담당하는
쏘는
##작으로
On
물질
##사한
##uk
나오기도
도저히
##림의
연수
##마치
당신은
간단히
비웃
##필요
4인
One
길게
##세서
오스트리아
영원히
3의
가죽
구경
##69
##저의
##바다
All
##하우스
강등
인도네시아
##됨에
##실점으로
모습에
아래로
없으나
조금만
어려울
구름
보냈다
Gam
##카운
##이라이트
KR
노선이
##군요
##인이다
##렸다는
상임
##레일
##럽게
올해의
내게
시리즈에
##소재
Part
기다려
많기
좋아서
초보
선보인다
##타리
상실
##시키며
없으므로
##온의
포격
몬스터의
처음엔
든다
상태였다
땅에
치면
혼돈
평일
공익
##특수
##서비
시대를
반려
Man
친한
##ise
남아있는
##기계
스테이
다녔
DVD
힘입
##층의
##병의
토요
전력을
존경
건국
참여했다
특히나
고구려
누군가
##로써
동구
##위치
평창
World
밝은
고도
말라
##킨다
타츠
##ARD
외야
베테랑
##쉽게
거는
느려
북한이
교전
장성
한마디로
##데다가
풀려
##폭탄
##페라
##인듯
원활
##2000
##테이션
결심
강화를
온천
##모션
나왔던
시크
승인
한계가
##포지션
식사
워크
##aby
진술
##개선
병행
비서
제네
##학의
자이언츠
노선을
1점
바가
불이
옹호
1989년
즐겨
성공적으로
장관은
1998
##지원센터
Wind
개최했다
수색
조용히
정권
지키고
열렸다
##체스터
##담당
지역경제
Cr
불량
##스도
스파이더
##ason
##미에
싱가포르
맡게
교도
능력으로
##인구
기다리고
##리도
##박한
##추진
##면의
예언
평가는
중의
미즈
##준의
##197
허락
잊지
식량
지향
도시철도
웃음을
상주
보내고
가리지
##연은
아이러니
선택한
주목을
한해
주인공을
곳곳에
행사는
##지거나
자꾸
##년이
방어력이
은신
출력
5배
##했듯이
광산
후기
직무
##족을
둘을
시리즈를
태국
위력이
##orn
5대
구독
전수
2단계
막상
친애
당할
지칭
진행한
귀신
입지
##작품
##AA
도서
4000
Ph
머리카
모듈
크기가
##백이
미국과
바꾸는
처참
모노
승강장
김병
빅토
##2013년
니콜
##복합
수사를
걸그룹
##2016
포장
5시
걸린다
허위
발생했다
마냥
##나라의
김광
캔슬
1999
1988년
아버지를
##ven
안좋
얻는다
그레
직접적인
무소속
트라우
이순
직접적으로
이득을
받아서
##연금
##슨의
방탄소년
시작된다
차량이
오로지
출석
GB
현금
출신으로
끝난다
절차를
받으면
##피가
외전
##프리카
##마나
앞선
##거든
FFF
##소프트
이번엔
시장이
지나면
##te
명문
패턴을
역량을
스킬의
##투어
서로를
##양의
주역
##겁게
상용
에픽
초창기
##고와
날이
생방송
보정
리스
해리
설정상
나무위키
##살이
##너가
사귀
영토
포기하고
충성
##41
포획
경기장
카구
##텔레콤
왜냐
##EFA
약화
출간
##용은
##걸로
차원의
##렸는데
사전에
몰라
##작가
보이는데
##가능한
##카이도
말까지
개인의
투쟁
주인공인
완공
동행
다음달
벗어
안타를
정상적인
##하지도
브라운
전작의
낸다
블래
때문이라고
차지하고
스포일러
기원전
10초
쓰여
##して
하나이다
##합이
##변이
LP
사도
##야는
통틀
아래의
##급이
일관
다이어
올라가는
파멸
##시기
각각의
유닛의
나이에
20분
##ign
분산
원더
용산
바르셀
##지니
##보상
법무부
##가드
에르
부실
##리버
환경을
Sw
사형
주의해야
일행을
신중
##란이
불의
수의
함대
사거리가
##린을
청춘
##열차
대한항공
막대한
가맹
편에
연타
사건은
넘버
불사
주포
##령의
초콜
스트라이크
ar
곡은
남자가
큐브
협조
##수리
##방으로
##코스
##억원으로
곡의
대조
##에요
결의
##자금
모델로
전해졌다
식당
이룬
모티브로
크림
자존
수확
##런스
전락
독일의
부근
##기게
미국은
모두를
위원장은
토너먼트
##되므로
커스
##혀서
연습생
##하기를
싶다고
정도를
##교육을
의혹이
##용의
##업에
투척
at
기생
국왕
드래프트
##있으며
##ero
##대한민국의
##우면
BB
벌인
활동하고
성격을
하려고
사고로
##있을
스쿨
DF
##이후
IM
파울
2사
전투기
##던지
비극
줄었다
##협약
##라딘
##해요
포함되어
##하고는
##레가
억제
한가
##권도
적들을
안동
토르
##불가
##먹은
이야기는
3배
DE
잡았다
관리를
참석했다
유아
##43
작곡가
이용객
결정을
손꼽
파르
구리
특수한
딜을
심해
중고
2경기
##하늘
노벨
정체는
개체
##베리
사이코
바위
면제
도민
거라
손오
##디지
시로
##집에
한국과
##장르
3부
##사무소
묻는
레지
##매가
일본에
##청을
자막
돌아왔다
뚫고
말투
##키아
섭취
##ail
##유산
##cc
##스틱
Gothic
정준
좋겠다
쪽에
독점
돌아다니
##인천
누구도
##어지는
강도
이며
법인
##조사를
벽을
##종으로
신데
##타니
##DP
##됐던
포위
##여성
BR
가능할
지도자
개장
##벽을
##자로서
##프라이
수상한
총리
읽는
다채
남을
리스트
스캔
중국어
최저임금
##강을
시작할
##환은
고등
##티를
1편
제6
토크
##더를
수습
##대비
도적
##IR
운송
기분이
영동
감수
##ence
##적으로도
가벼운
##네마
##란을
##페르
날리는
##학력
저렴한
##노는
##공격을
귀엽
##래시
라그
야외
##시키면
##린은
시카
ML
불교
##판과
누나
185
##중이
##전선
체제
##보컬
선수로
메이플
배드
준수
프레이
움직임을
##리기도
주류
##러스터
모습이다
뒤에는
##융합
끝나는
빠르고
집권
추후
##만명
마신
있거나
서식
갖게
위주의
##게이트
간주
물이
부처
흥미
실질적으로
약탈
2억
전원이
##리즘
##리던
증가합니다
신축
##만화
진상
아버지는
받아야
운이
사진이
고등학생
낚시
등극
속한다
인가
report
나폴
##사진
##외의
##삼성
막강
##B48
PK
신장
따지면
##호로
좋지만
##출생
##봤자
Day
##터스
히토
##삼진
지속시간
일환으로
위탁
달리는
아지
2승
##속으로
##OO
시간의
구역
##미한
학교에서
힘입어
맞는다
얻어맞
뚜렷
재장전
3시
물고
우익
쉬워
##한글판
##런트
정발
공약
가능하고
위해선
담배
치즈
특허
아군의
마루
마이크로
모양의
표정을
##iel
딜레이
112
복무
제독
번째로
답했다
##크리
벌써
프란
기억이
만들어서
입장에선
난이도는
##mp
먹으면
농가
##たい
사라지고
기름
포스트시즌
별명이
오락
영향이
회사의
성적이
유적
참여할
##센터에서
유튜버
철수
코토
feat
한국을
인종
상태에
앞세
받았고
상품을
##IX
창립
##05
##병으로
그래서인지
##들에게도
##우러
이어져
##85
비용이
꿈꾸
시장의
가챠
증가한
피에
##이랑
##The
메이드
기술은
##aster
메이저리그
##아나
등장하는데
##내면서
203
이어진다
소속의
지는
도착한
일어났
일요일
있겠다
##층이
회계
시작했고
쓸데
##TA
과거에는
이태
추모
##박이
##체와
##부터가
조우
못해서
##터로
##시설을
SF
신동
물에
116
구간이
1990년대
싶지
감독을
머신
시피
방위
에반
아닌데
세뇌
##소리를
규모로
여럿
인식이
##실과
드루
사장은
##MAX
##んな
손쉽게
들어가서
한나라
재회
하츠
JP
화력이
##하였는데
##토스
수월
동아리
##까요
코르
발동할
분야의
설치된
예전에
##당하게
집어넣
카자
이유도
이원
Up
입는
답답
핑크
##먹을
스타디움
고통을
오버워치
포착
운동을
로빈
스키
사용시
신경을
미루
있음
##int
##특기
자체도
##우라
##손으로
##아라
##사들이
##よう
리치
이토
아니기
PP
튼튼
회담
1980년
지경
##02
out
수직
##오스
화력을
##훈은
별의
성우가
무섭
태평양
도움으로
2시간
일렉
##ron
##봐도
곡으로
세력이
이현
지점
징계
실은
퇴장
문제의
GP
##학기
되므로
##었는지
do
하이라이트
전격
3초
만일
들어와
발의
이브
디바
분열
##보지
리드
감싸
용어
많을
오크
대북
##미지
##하루
TVA
are
##ble
지역으로
##건은
구상
높이는
상장
대안
찾아온
질문을
##경기를
안정적으로
나빠
##중공업
건네
함부로
유물
메모
품고
깊이
DC
90년대
닌텐
고려하면
너를
##진영
계통
어울리는
도루
##과대학
##화폐
가자
악당
1패
석유
출동
안타깝
본회의
##출을
극히
그중
##로윈
##인터
##히코
루이
뜯어
개를
착한
30대
서머
춤을
희망을
kg
사천
학생이
되었지만
GO
##속을
##차게
##시의회
Fr
말레이
지역이
Co
나라를
증가하고
이어질
역시나
##니코
##ype
##ino
지워
유치원
##비치
믿을
부채
##도리
유동
근대
1단계
유엔
##야를
##액이
신세계
##산동
##액션
##쿼터
187
유혹
상시
##학적
##들처럼
버섯
반전
골렘
부산시
1987년
아이템이
작전을
일어날
사이즈
총장
##입구
##가요
정해진
원작의
듣는다
이동속도
##줄이
반지
##두로
내리는
백성
##쇼핑
이번에도
트레일러
메시지를
다큐
수렴
억울
음료
Ed
##연대
피고
상륙
정해
관람객
Fate
살아있는
##인드
어쩌면
의식을
##2동
이해할
##즈니스
극장
편하게
##미국
##카르
고무
바라는
기도
아레나
##았기
소프트웨어
##마켓
맛을
어리
한강
국도
세인트
실책
##파는
간에
##비행
상황이었다
지녔
일부는
불참
##데레
정류장
수준을
##BO
##년의
##하자는
내성
##95
총괄
시사
##재의
##있지
최대의
웨이브
##자라는
죽게
인상을
국비
부사
##으려는
##로서는
남는
정밀
##보의
영주
삼각
제안을
글이
나설
찍는
##천의
투기
##전시
넘어가는
경악
##버튼
동일하게
##백과
10여
##거라
br
담겨
둘러싼
볼트
##5000
5명
##하곤
우회
치열한
옆에서
##러는
것입니다
##쾌한
않는다면
파고
클레
##조원
2편
대외
자의
##권에서는
즉위
한방에
호불
변환
##분으로
의결
여전
놀이
사신
도시재생
아인
능력치가
컨설
장신
##감으로
##리한
30초
비유
여기저
##됐다고
대동
##론은
있다며
빛이
구축함
커맨드
보통은
앞둔
아들을
시민들이
맞붙
루나
버전이
높이고
콘셉
작품이다
꼽힌다
담고
골목
올라간다
편안
##ult
소문이
히든
3턴
원주
나왔는데
##HP
##0000
모델이
text
##문으로
투자를
끝나면
인게임
서류
실전
시선을
언급했다
##사격
##광주
무리가
작화
만들어낸
항복
##면으로
##배치
##년도
퍼즐
스펠
생각한
팔아
사용된
클린
편지를
건강한
즉각
형태를
자제
##병기
##최대
인하
두들겨
1997
반응은
과장
어렸을
##훈의
경호
원전
하늘을
간편
천천
3개의
선수의
##약품
미치는
135
삼진
##킹을
하에
첫째
도모
엔드
베타
width
대마
고장
Gre
지진
이걸로
포인트를
협력을
이니
아이들을
이사장
결과에
하라
할수
##03
##자나
전인
코인
랜드
다이아몬드
응용
전당
적군
##님을
전장
땅볼
##rd
##98
##사업에
중부
디스크
##일어
##플라
이노
대책을
제작진
로즈
##정지
올라왔다
초등학생
승부를
##멤버
단종
디자인을
의장
모토
던지는
오면
바에
되었다는
너무나도
찍고
시설을
도시를
중후반
잠수함
교수가
우위를
군대를
##백화점
서클
싱크로
피터
스나이
##んだ
##널드
귀국
문화를
학교를
바이올
오고
##상가
회차
##──
##무는
펼쳤다
포럼
플라스틱
중동
공천
둘러싸
플라이
##라미
Ne
단위로
##어에
성을
And
##방법
남쪽
개발을
안성
복수를
##일과
##EL
보낼
벽에
야쿠
위치가
북쪽
##히게
폭탄을
##들고
슬라
것인가
공인
##리포
뜬금없이
##가면서
계절
없습니다
로버트
##론가
급증
필요는
1집
제트
##미노
트루
##스트가
끝났다
쓰러트
가난
##교가
결승전
활동하는
특급
##운전
있을지
인프라
사용하며
기대하고
##urn
##탐정
자국
확장팩
##작전
뜻한다
싸움이
이경
소중
만드
상하
선포
밀리
##우트
상인
##히면
##풍을
끝났
드러냈다
##슈퍼
##2012년
나치
상징하는
적시
##체제
수류탄
##방울
연쇄
권유
등장할
##오지
냉장
테이블
##ール
크레딧
##중의
원의
솔루션
승진
슈퍼로봇
올드
학술
네티즌
길고
##석으로
봤을
우측
페미니
##시간에
다닌다
본부
##그리고
스티븐
모인
##번은
##놓는
1등
바이러스
사람과
프로듀스
표창
데미지는
##종족
북구
독재
##보우
김주
##very
경쟁력
##안과
NE
1이닝
##박물관
##타마
##으면서도
죽었다
##용품
비판이
차세대
##패스
##저런
바둑
야수
태극
츠바
통보
객관
유해
시리즈에서
이곳에
##주요
문화예술
코스튬
##자다
##신장
디자인이
주축
en
스트리트
프랜
대중교통
##이었을
질투
VP
어렵지
부르고
시흥
엘리자
대사는
##저를
통화
##금지
카리스
마음의
면모를
플래시
##료가
##능한
안의
##상승
##MC
지원이
이곳에서
벌어지는
##미아
명시
##적한
##젝트
오를
DS
말로는
##피안타
불과하다
초콜릿
##ild
4만
##바퀴
주니어
경직
일기
내용이다
폭파
측의
강해
##내에
##TC
피로
사단
##eah
##너를
이어지고
세번째
지혜
싶을
102
낙하
##츠는
##들에겐
450
무시무시한
쓸만한
Fe
동인
법원
선을
버전은
콘솔
##마냥
##사리
103
##돼야
골라
교통사고
보여줄
과학기술
컸다
산불
되어있다
연대
좌절
보이기도
등재
적게
##골드
1996
마을을
고개를
왕국의
발로
호환
요구했다
##78
주된
벌금
##건에
##르와
##정하고
##ition
##게이머
되어버렸다
미나미
육상
차이로
10회
1995
정신이
본명
ver
낙선
##우스의
거북
편에서
##분류
동계
감정이
##분간
##심은
11px
라면서
이세
언젠가
##뱅크
비용을
전반적인
후임
##통상
디펜
싶으면
##모는
얼티
3세
서해
착수
##해하는
##호환
##셨다
킬러
사가
지고
허무
tvN
소속팀
군수
##1동
짐작
대신에
트래
##나갈
놀라운
현장에
당한다
##ック
CCTV
210
순환
고블린
성향이
친애도
납득
후보가
주의할
요리를
여기서는
설명이
맥스
시키는
신사
##루미
항목을
##센터는
같은데
행정안전
범용
홍성
##카미
전기차
##걸이
측면에서
기자회견을
군의
끝이
가능하지만
대접
##110
만화가
측이
한국이
세계적인
안경
힐링
문화재
호수
어색
##됐지만
극대화
##보에
지지를
싶다는
지원하고
##리아가
##생물
승리로
제자
나오게
폭로
앨리스
##청에
황교
짜증
##도도
순수한
shadow
혈액
면허
표현을
의회
퍼져
아저씨
##청소년
##국과
찾아볼
판정을
쓰인
##룡의
내다
##할지
##St
##했으니
##석과
##파티
##롭다
##질환
##선생
##키스탄
1화
1200
커서
##바를
##가다
##문화재
기록은
나서는
딸을
체인지
코미디
종로
사내
마련했다
커스텀
기간이
상대할
##시켜서
위험이
계정
터널
참가한
후회
일반인
왕복
조별리그
임원
##ose
봤다
신부
진행될
##브로
록맨
설령
천천히
주면
은폐
Wi
에리
제조업
상식
비틀
세력을
장례
##드에서
모르게
의원의
올바른
##app
미성
상반
기적
##oug
참여를
없다며
상태이상
투사
개신교
미래의
보증
##경쟁
정부와
때와
중거리
노무현
튕겨
이런저런
시즌에
얘기가
사각
산탄
전송
##강의
웨스트
감동
이대로
저하
신발
아군이
영혼을
후의
아니냐
디자이너
협업
버서
테일
##72
지원할
##구장
CEO
##어촌
부분이다
##건지
눈치채
대면
이른다
드릴
##카나
김유
벌이는
##위와
##틀랜드
운명
후방
상대방의
회의를
나오지만
슬레이
##자이
##노를
기술의
약속을
기준을
에디
스텝
전적
창설
자원을
##위에서
불행
모델을
실수를
방송에
##엔터테인먼트
##연장
##학부
바뀌는
진로
##화되어
##되었기
급격히
맞았다
항공기
무죄
To
알레
청문
역사적
플랜
사이클
신청을
열혈
슬픔
입원
아마존
손이
##터와
아니더라도
쫓겨
커지고
날씨
La
5858
있기도
할지
앞의
경쟁력을
선보인
무용
##심사
영업이익
##슬라
겹쳐
Pre
점에
2호
있겠
흔한
절차
시급
##2015
시정
2위를
아직까지
이듬
인격
모습과
밤에
Gu
가족이
많으며
진출을
쓰게
축복
고지
##반에
##차전
실용
수천
##수영
방식의
승차
고쳐
시뮬
##학급
현장을
##운의
자문
##음으로
HE
##스럽다
##혹한
끼고
제도를
##CE
명품
585858
적고
방식이다
##제일
##IL
초당
##こと
경우를
발매되었다
모임
스타트업
영남
##바지
##오염
게이머
##억원의
SK텔레콤
##건담
일시적으로
애초
##어스
##치아
이럴
루이스
후보자
바꿨
##4명
유래는
DP
##즈에
그녀에게
##사에게
##췄다
재미있는
##작곡
OVA
풀이
무술
##기면
##총리
가성
무기의
##주면서
토우
것이기
비중을
알리는
생각은
24시간
통치
수록된
Sk
증오
하노
마땅
떨어지고
시민의
약점을
부패
사나
##온은
##바르
##VER
세웠다
미칠
##토니
불태
##uck
소문
틈을
소용
10px
아이들
##가루
드문
##본을
오프라인
##eth
거인
패키지
보강
패널티
최근에
##으라고
추진하는
##6명
것과는
대회를
합계
##하듯
떨어질
히가시
강간
차량은
유니크
##자산
원내대표는
##디자인
보도했다
##레를
##소드
추진할
TR
##두면
모드를
2세트
특화된
##성능
유용한
##철이
##형과
하우스
AN
속한
토오
##계획을
변동
방어구
먹는다
##위원회를
3단계
##마로
됩니다
##명칭
##몬의
논란을
배운
기록하고
맞대
부유
협동
1장을
##대한민국
드로우
이강
워크래프트
소외
##슨은
마련됐다
추천한다
상태의
기둥
동급
시리아
##정수
##잡고
고스
패배를
정상적으로
##ari
뛰어들
##께끼
입대
카스
평점
매력을
지역구
터트
인민
웃는
차고
##마귀
어렵게
중세
엔진을
확인하고
오기
##들끼리
간간히
1시
##례로
BE
재등장
##주소
테니
##졌으나
에디션
이듬해
재단
재미를
FW
아서
##저항
상하이
우라
특성이
이윤
발견된
##저리
라틴
높았다
미키
##아니
침투
고맙
여섯
경상북도
멤버들의
선거에서
##대체
as
듣기
초고
있었기에
누리
중대
##레인지
그러니
탐색
na
그쳤다
힐러
##아르
선수들을
에도
사이에서는
##교류
목적을
1986년
결투
나중에는
##2명
##바시
그외
##커는
편이고
확인됐다
도깨
한달
설명은
Car
활동에
모티브는
##유통
셔틀
안전하게
##냈고
##수인
기쁘
##현을
둘다
얼굴에
만나고
악마의
복제
조건으로
세팅
프론
지분
익산
공간이
3으로
촉구했다
can
기종
인연
##국인
챌린지
##운동을
##릴라
##96
벤치
과정이
갈등이
물품
신생
여자가
오르는
수단
갈등을
Mk
분노를
모자라
##vel
짐승
1호선
안고
30년
불가피
##의료
이해가
OG
하시
##1명
감각
대가로
실존
아니라서
허리
##ye
메구
연예인
수상했다
Qu
##배틀
출혈
145
자발
##초를
풍부한
구청
버닝
겪는
법칙
노사
평가했다
입법
아나운서
##오피스
높을
모의
##우치
다운로드
##7명
어드벤처
2장
수염
판매하는
케빈
##3명
동경
정반
데이트
##가에서
4시
##up
계열의
그대
속하는
##보라
대통령과
김선
번의
외곽
가져다
##했음에도
동쪽
이별
Station
아픈
##시장은
love
적립
정체가
##캠퍼스
##시노
수동
무거운
##차이즈
모범
예쁘
상태이다
모두의
세라
기본으로
절친
딜링
##목적
##04
뜻으로
##상으로는
던진
힙합
##ater
베를
##린다는
##나나
3분
컨디션
##무역
##08
마음대로
LO
일부가
##DS
입구
진료
##ター
늘어났다
의해서
##나베
활동이
정의당
승률
Black
미노
##들이나
씨의
##속의
해당한다
##련의
구간은
뮌헨
카지
어나
클라우드
깎아
##ode
##카드를
와이번
뜬다
엔터테인먼트
보행
전지
물류
텐데
##파일
살아남은
리타이어
##문서
##포는
##국제공항
표지
하단
트리거
사례를
사망한다
##생으로
##안군
짓는
있기는
##키리
나간다
프록
성사
중도
선정됐다
##인데다가
##코인
엘리베이터
두드러
아까
구별
엘리자베
분해
씨앗
정도면
입사
실패한
가진다
실패했다
블로
쓸만
##수준
##근로
##변을
추방
국가가
##드린다
##필살
1994
아름다
##견이
##처가
우정
어머니의
파란색
갖는
강동
리틀
사업의
우에
##위원회의
남구
암호
나란히
무선
불거
##들까지
주자
Dream
186
의문을
드러난다
실업
지역주민
돌아갈
미소
아니야
모델은
대가
크레이
도덕
나누어
##주교
##두를
볼수
에어로
시골
타이틀곡
제작된
기사단
##글로
깔아
난이도를
750
없었지만
이렇다
아르바
RA
165
##ott
키우는
히비
수험
연구소
Mag
##대학원
##리드
##76
데빌
##현실
구조를
이외에
썬더
의미는
현직
109
##센터를
서쪽
##도전
역습
움직일
증권
유관
올라갈
FF
민선
드러난
##레의
전라북도
뽑는
##퍼가
빌런
우르
Super
5성
노동자
대상은
농민
십자
##ator
##레드
시리즈가
왕조
주무
##내서
155
자리가
한꺼
이전부터
교차
라이온즈
예시
획득할
서번트
나섰
여론이
##였기에
from
##히토
빠르다
문제다
무상
편하다
인지도가
##후가
점과
대검
일산
정답
##히메
흰색
2차전
재활용
##했어요
되돌아
비례대표
캐릭터들이
##usic
무엇을
독보
병기
연휴
과거를
너머
하려
가능하게
일본인
숙박
재개발
결정했다
배송
모에
##소모
##철의
##습니까
똑같다
##물과
양손
아닐까
MB
그거
사서
양측
조차
##리조
거기다가
##부키
동점
포켓몬스터
강호
##책임
알지
##텐데
라스
무궁
트릭
높였다
자부
##차단
경연
도시의
##이나마
신데렐라
동북
배울
수성
20여
무지막
소라
오케
시에는
강렬한
일행은
소감을
##민족
DPS
최정
して
제공할
4천
보복
안전을
통칭
##텍스
사람으로
임기
하쿠
##크라이나
##나로
이누
그릇
필요하다는
정성
지정된
신임
한미
봉쇄
##테니
##독한
해머
선택을
작품에
탄탄
수수께끼
##보조
2에서
미묘
##지역의
달성했다
회사가
모으고
UEFA
않았으나
어마어마한
극중
차지한
2초
쿨타임이
단장
##방식
##줄을
##빌딩
한꺼번에
개념이
비공식
감탄
원조
##내에서
것이란
마을의
##조각
파밍
##속에서
KTX
카테
착공
##병은
##처분
전체에
##있다는
BJ
제노
호의
적당한
실정
재해
조언을
늘고
본작
Ser
##엑스
위성
##소송
하나하나
국가대표팀
##장애인
보편
##받게
##모스
##리스타
도와주
사정거리
끌었다
##천사
경로
맥주
후반부에
싸움에서
나뉜
메디
입문
받았다고
말과
도망치
##이한
나타내는
숫자가
꼬리
무지막지
##했듯
##모습
LED
평상
대전차
쉽고
어지간한
노말
바닷
처분
미션을
성적은
So
주문을
세계로
양평
캐시
##예요
사회복지
Night
내일
개선을
보구
과도한
최순
##신고
Gl
##밴드
논리
국어
히메
##정비
##운수
##편으로
최악
개발에
##있지만
살인사건
##병과
##오기
재발
호불호가
##티가
누군가가
##당성
III
극한
회장이
9개
내놓은
##경기에
이벤트로
내수
늘어나는
체중
퍼스트
##펙트
보호막
프로게이머
아버지와
##リー
##이라기
Oh
어렵다는
구매할
운영한다
PM
좌석
거라는
##경험
##왕은
태어났다
제8
휴게
##총장
##랍니다
104
손상
##무의
##취를
잡아먹
사실에
유연
나갔
압축
훔쳐
않았기
##어버린다
##량과
##다시피
##CD
최상위
수술을
기숙사
##가수
뜨는
헤르
##1번
철학
비즈니스
##부인
##충전
영향력을
##포드
그렇다면
1985년
잦은
필요로
스쿼
주며
##예를
오렌
##프랑
발견한
윈도우
딸이
수강
변해
가능성
##2011년
역사가
스피릿
품목
##그레
##쓰고
다이스
라면
박종
권리
##경찰청
##관계가
##태가
##층을
받기도
##ject
##내어
나눈
뜻이
뭐가
것들이
않나
##서버
##하고도
##inal
다해
##2의
잊혀
모로
인데
##풀이
임상
편으로
##내려
흑인
보드
금호
전쟁의
한번도
white
않습니다
첫날
##법의
1경기
원곡
##미션
스타리그
형태가
##군에게
키움
##무게
여타
살펴보면
4개의
생각하지
##포럼
근거로
크라이
눈앞
묶어
덕분
없도록
잉여
단어를
소집
2분
PV
괴수
공격해
재직
제치고
장미
사업으로
2개의
Str
일본에서는
하루에
디즈니
통째로
증가하는
강서
공개한
운항
##졌기
##der
##영문
##위원회가
마을에
##바야시
##키스
DD
급속
##브레이
SW
##주의자
교육과
잃어버린
##츠카
BM
강아
버텨
##격의
모두에게
잡으면
##리니
캐치
서민
중지
급식
들지
##치킨
결혼을
3가지
가족을
프라임
##씨와
극단적인
##아도
플레이어에게
##운동장
영화가
죄책
EC
학생들을
유지하는
무효화
생년월일
엄연히
알려지지
##위대
##문에서
##사구
달콤
기묘한
겪은
전세
SN
감추
덱에서
##FFF
##00원
해수
##동에서
시체를
1인당
에코
해치
문제도
국경
할때
레벨을
##보증
따르는
플러스
##스틴
##아머
구간을
기갑
적힌
##풍이
미정
위엄
방사능
돕는
보상을
멤버들
단행본
맺고
편이며
오피스
기쁨
없었다고
트라
잘하는
진에
##값을
태클
프랑스의
세금
피하기
##노와
선수들은
선호하는
듣게
스핀
섀도우
돌아간다
##선발
다가가
아세
##셔서
컴백
남해
운영에
내용으로
적절히
녹아
요소를
꼬마
조금이라도
스즈키
철회
##량도
머리카락
##ert
김제
적으로
107
조합을
신곡
가능하다는
불리한
##마력
중재
포스코
##형에
침해
불만이
##업일
철저한
않다고
각자의
##맥스
서포트
##파괴
이마트
즐거운
돌고
결정적으로
그곳
놓여
##토록
찾아가는
주제가
공헌
나이는
않으므로
##해야한다
메카닉
유비
##시도
흐름을
##하겠지만
공동으로
까다로운
감소했다
유니콘
하급
사직
키우
##워하는
##점과
태양광
##과장은
##네는
선수들
쳐들어
이가
국회에서
##까봐
##경찰서
##주도
Windows
##질적인
심화
이진
##바이벌
##하우
생체
적정
학교의
하남
this
##두에
때문이었다
일본판
레일
##저우
##tern
코멘트
호응을
##예방
바람이
블리자
2010년대
##값이
먹었다
##☆☆
화장품
하마
새해
##조작
##프란
오세
쪽에서
때만
##바운드
##yn
12시
##oot
##위기
##오오
보상으로
등장해
두루
늘어난다
##호에
##녀가
##리에이션
헷갈
말하자
관계없이
벨기에
##피는
20개
백인
이때는
범위를
죽으면
다시금
자책
##드컵
내부에
##퍼를
회색
##ㅋㅋ
심각하게
반영한
원소
법을
##이용
끔찍한
병과
##ちゃ
비난을
##히기
오메가
서초
캐릭
2점
##리코
출신인
##어버리고
벌어졌다
마찬가지다
송도
##하다면
특징이
알았
무난하게
하루카
6위
##배차
가득한
문장
침몰
최종적으로
이기고
버전으로
##시키지
의미하는
##프에
##방은
##HT
오죽
포토
not
케이크
10명
건물이
왜냐하면
필요할
##효율
##리아를
동서
불쌍
영등
상성
##해야만
배차간
콘텐츠를
fl
부장
저작권
##찰을
##07
모드로
리스크
붙인
##oul
##시스코
대표적
센트
##로마
방법도
##let
용역
##2014
전과
##들여
당첨
시마
없어도
별도
멤버가
거뒀다
노래가
3년간
##현재
언데드
##방지
인테
##라에게
이그
##가기
시작하면
뽑을
비중은
##수입
1일부터
극도로
일정을
선발로
쓰던
없지
##영과
일단은
독서
어설
역할이
보건복지
했기
##조한
지나가는
1레벨
##리츠
Rem
다채로운
펀치
##된다면
##람회
##시나
##있어서
생각했다
##온을
전향
활발한
이집트
이도
발탁
연구개발
##규제
내비
차로
참모
싸우게
일주일
말레이시아
내달
버틸
##일까
##공화국
스매
표정
##06
##노스케
##사업은
스트리머
가격을
1980년대
돌아다
##집에서
방어력을
